<pad>
<s>
</s>
<unk>
的
,
。
在
我
和
是
了
你
、
一
他
这
我们
?
有
对
.
中
一个
年
人
(
第
上
与
不
就
“
将
会
他们
也
”
:
她
个
说
为
要
并
都
所
问题
)
或
可以
来
吗
但
到
没有
而
地
它
很
被
以
月
国家
该
能
这些
还
把
;
想
从
时
这个
去
工作
里
其
那
委员会
及
两
日
给
进行
如果
发展
下
让
斯
新
可
提供
着
政府
自己
好
!
做
向
大
可能
中国
研究
尔
因为
需要
用
报告
得
最
已经
会议
通过
性
以及
多
现在
项
于
后
三
联合国
已
方面
特
什么
其他
公司
一些
关于
者
条
认为
使
但是
-
—
必须
情况
等
由
知道
二
组织
系统
比
国际
就是
克
美国
更
内
时间
小
这种
·
包括
安全
一种
名
有关
任何
这样
几
当
请
经济
影响
所有
过
号
本
使用
活动
前
位
点
不是
看
开始
世界
吧
提出
法
应
事
社会
重要
之
建议
家
你们
希望
又
根据
没
方案
表示
要求
应该
拉
方法
您
决定
机构
作为
计划
技术
支持
出
不能
先生
德
呢
行动
非常
执行
只
因此
十
合作
天
继续
服务
时候
&
1
不会
像
》
《
规定
关系
喜欢
努力
四
管理
高
正在
大@@
项目
之间
它们
次
采取
子
人们
分析
再
成为
代表
美元
主要
能力
妇女
不同
话
国
信息
个人
真
政策
至
_$_number
一次
为了
能够
区域
地区
而且
特别
五
那些
到了
告诉
目前
目标
发现
有的
发生
3
教育
今天
各
得到
水
所以
非
部
生活
同
方式
儿童
建立
太
环境
主席
实现
不@@
由于
措施
起
保护
2
还是
公约
这里
许多
很多
受
化
此
增加
市场
处理
如
法律
尼
段
行为
一起
马
啊
设计
爱
是否
作用
5
对于
大会
地方
解决
理事会
文件
同时
quot;
亚
帮助
作
却
加强
一直
结果
考虑
都是
一样
目的
场
跟
件
作出
最后
如何
6
万
卡
控制
间
权利
发
车
或者
注意
六
还有
选择
获得
人权
4
种
决议
加
具有
东西
走
们
资源
企业
器
吃
存在
钱
份
只是
机
人员
部分
然后
提高
利
讨论
变
看到
布
体
过程
10
觉得
区
那么
产品
其中
并且
正
过去
孩子
领域
达
之后
九
中心
政治
数据
接受
才
学生
确保
无
更多
促进
岁
分
那个
有效
期间
阿
机会
长
一@@
7
生
文化
怎么
之前
处
届
事情
另
学
程序
一切
_$_person
为什么
举行
成
成员
利用
则
起来
行
不要
产生
带
一下
问
因
指出
格
…
每
和平
香港
谁
12
头
只有
打
成功
令
手
式
中@@
听
及其
科
开
一点
朋友
出现
款
人民
制度
相信
无@@
参与
张
员
9
基础
无法
8
不过
进一步
学校
见
全球
调查
类
标准
投资
局
任务
大学
别
罗
实施
参加
力
外
结构
支
米
买
文
秘书长
意见
巴
心
花
期
相关
城市
各种
水@@
死
提交
学习
线
尽管
原因
道
资料
虽然
准备
然而
应用
纳
条件
建设
亿
自
最近
减少
找
增长
量
健康
了解
改变
西
来说
八
完成
叫
方
完全
我国
出来
家庭
造成
不知道
用于
感到
基
即
代表团
别是
回
受到
书
曾
路
经
金
援助
仍然
基金
权
战略
确定
小组
开发
人口
基于
严重
维
保持
S@@
之一
运动
安
此外
门
显示
小@@
欢迎
机制
部门
数
必要
介绍
生产
高@@
度
夫
银行
11
快
主
一定
七
/
开展
M@@
来自
如此
称
共和国
未来
网络
审查
组
英国
范围
总统
图
原则
_$_map
人类
表明
贸易
率
直接
信
非洲
写
以来
自@@
心@@
审议
导致
那里
价格
议员
2@@
上@@
取得
带来
设备
自由
变化
未
事务
3@@
结束
改革
费用
责任
甚至
应当
片
这么
共同
因素
全面
光
基本
塞
出@@
进入
历史
发言
表
型
欧洲
面
气
英语
说明
州
"
采用
20
负责
e@@
整个
稳定
感觉
价值
日本
元
4@@
内容
冲突
治疗
管
缔约国
找到
关注
大家
制定
帮
助
形式
需
拥有
约
比较
成了
当然
联系
制
队
今年
总
低
最大
不断
按
资金
以色列
比赛
例如
事件
业务
最好
具体
预算
有些
山
强调
理论
塔
联合
承诺
便
住
较
网
协调
保证
评估
也许
节
载
一般
进
解释
林
外@@
多少
美
安排
8@@
7@@
发@@
人@@
办法
同样
将会
入
按照
先
经验
水平
些
小时
总是
真正
a@@
市
通常
勒
持续
充分
台
普
6@@
下@@
同意
哈
新@@
须
5@@
30
物
迪
兰
培训
法院
动
挑战
经常
重新
进程
空间
各国
海
汽车
改善
仍
据
超过
重
座
B@@
那样
需求
以便
科学
萨
传统
波
伊
近
程度
模式
流
利益
十分
姆
P@@
收入
质量
长@@
层
专家
意义
武器
重@@
奥
A@@
更加
声
主义
很好
C@@
工程
草案
精神
国内
条约
离开
似乎
热
费
协议
以前
拿
定
医生
联
北京
病
材料
语言
风险
电话
「
鼓励
雷
周
某
电@@
」
适当
D@@
i@@
每个
部队
阶段
伊拉克
值
印度
进展
集团
工作人员
才能
框架
达到
独立
船
9@@
大量
提
妈妈
杰
哪
馀
设立
除了
公@@
二十
规则
2000
认识
完
占
感谢
安理会
人士
全
T@@
电影
球
几乎
指
分@@
功能
得了
-@@
明
记录
语
2005
警察
加入
G@@
某些
知识
皮
特派团
电
少
业
地位
困难
天@@
当局
莱
恢复
打@@
广泛
恩
以下
有@@
证明
危险
面临
讲
案
吉
随着
列
派
长期
做法
限制
协助
获
s@@
森
老
开@@
积极
本@@
不想
办公室
简单
看看
另外
巴勒斯坦
15
生命
评价
干
工作组
涉及
犯罪
承认
秘书处
允许
理解
埃
模型
别人
访问
R@@
风
蒂
关键
申请
班
合
反应
a)
这次
状况
一部分
t@@
战争
工具
H@@
飞机
取
选举
生@@
伙伴
现
F@@
单
协定
首先
以后
千
引起
要是
当时
批准
威胁
检查
下来
1@@
章
国际社会
用户
父亲
论
相
容易
各项
形
实际
压力
更好
谈判
板
交易
动物
每天
2004
团
俄罗斯
女性
细胞
相@@
客户
去年
清楚
反对
感
掉
放
读
针对
王
早
海@@
其它
风@@
贝
探讨
故事
d@@
错误
巨大
符合
别的
玩
c@@
监测
地@@
花@@
消除
办事处
工
港
洛
核
2001
N@@
伯
2002
至少
顿
当地
力量
社区
世纪
食物
b)
L@@
手@@
议程
2003
数字
明显
联盟
担心
创造
土地
转@@
民主
以上
身
回来
司
级
加@@
宣布
永远
诺
成本
本文
全@@
体系
弗
块
推动
o@@
述
而言
状态
发表
老师
名字
内部
尤其是
边
经过
通
剂
专业
父母
署
最终
群
房间
课程
合同
鱼
危机
意
套
强
均
母亲
计算
2006
表现
再次
词
而不是
油
合@@
咨询
河
接
形成
半
行@@
身体
选
色
远
现象
成@@
教
恐怖主义
E@@
石
测试
从而
神
双方
音乐
谈
分钟
良好
理由
属于
满
法国
10@@
托
网站
上述
死亡
做出
女人
索
她们
平等
口
意味着
以为
都会
同@@
双
明天
包
禁止
商
可是
例
亦
规划
艾
大多数
星
根
游戏
喝
法庭
连
库
义务
计算机
酸
司法
扩大
曼
生物
行业
送
穿
事实
放在
光@@
报道
愿意
调整
女士
房子
全部
会员国
证
房
全国
打击
训练
唯一
结论
O@@
前@@
界
自然
站
白
只要
支付
监督
呼吁
工业
额
日@@
华
黑
_$_ascii
树
肯定
品
l@@
发出
转
而是
单位
装
数量
红
鲁
受@@
谢谢
机@@
效果
人道主义
组成
哪里
国@@
衣服
女
年@@
速度
零
明确
瓦
交
李
计
通知
满足
医院
狗
女孩
收到
怎样
儿子
防止
火
室
指导
盖
资产
伦
案件
军事
明白
足够
正确
发挥
领导
媒体
东
预防
常
疾病
时期
观点
2007
省
越
成果
每年
供
步
安@@
热@@
多年
2008
即使
儿
官员
给予
岛
属
具
除
人和
视
暴力
对话
复杂
重点
价
男人
特@@
h@@
厅
正式
福
a
流@@
德国
事实上
位置
原
u@@
主@@
刚
奇
纽约
临时
保障
杯
质
综合
消息
头@@
回@@
金@@
教学
凯
电脑
军
任
避免
立法
法@@
城
销售
时@@
南@@
条例
角
错
思想
降低
I@@
时代
1.
士
决议草案
行政
设施
2.
18
电子
极
画
压
手机
杀
概念
收@@
经历
履行
老@@
实际上
打算
有了
公共
b@@
多@@
出口
首
试验
m@@
高级
商业
轮
类型
出去
其实
附件
犯
证据
离
调
酒
曾经
请求
缺乏
.@@
脸
12@@
拒绝
店
手段
药
根本
改进
竞争
有助于
g@@
er@@
这儿
声音
架
事项
大约
贡献
南
建
体@@
差
电视
白@@
条款
特征
照片
反
过@@
真是
收
内@@
p@@
新闻
票
制造
亚洲
艺术
只能
物质
看起来
复
相当
声明
r@@
联邦
得@@
气@@
建筑
不可能
莉
很快
软件
有点
确实
50
人数
总@@
0@@
句
丝
目
经济@@
迅速
马@@
学@@
交流
威
运输
,@@
共
特殊
权力
e
缔约方
性能
补充
大部分
晚
试图
14
回答
职业
修订
听到
公民
协会
面对
损失
维持
看见
非法
18@@
15@@
坚持
优先
社会@@
普遍
单@@
动@@
坦
土
辆
失去
难民
阿拉伯
设
破坏
意思
课
盘
16
晚上
重大
院
好@@
过来
坐
用来
估计
农业
处于
状
跑
方向
报
可@@
党
星期
论坛
an@@
丽
表达
后@@
有时
下降
美@@
领土
本身
保留
利@@
素
定@@
观察
难
空
最高
成立
/@@
21
19@@
现代
直到
法官
金融
且
3.
遵守
正@@
失@@
或许
梅
购买
情
娜
代
回家
停止
K@@
13@@
药物
附近
仅
在于
维护
想法
当前
n@@
系
空@@
深
家@@
特点
态度
调@@
交@@
领导人
伤
ar@@
集
加拿大
制@@
口@@
哦
25
西@@
牌
k@@
微
快乐
年轻
位于
复@@
预测
值得
解
麦
议定书
记者
莫
局势
13
笑
公众
显
尊重
货
里面
清@@
患者
律师
A
越来越
植物
歧视
贷款
传@@
居民
是不是
关切
眼睛
快速
平
不仅
实行
既
寻找
y@@
该国
艾滋病
从事
装置
叶
自动
定义
食品
阿富汗
实@@
股
文@@
爸爸
面@@
象
上帝
试
倍
赛
言
就业
员工
说话
深@@
宗教
立
邀请
保@@
菜
重视
并不是
妻子
上海
制订
希
通@@
财政
为@@
若
提到
反@@
不得
哥
往
换
年代
血
结
接@@
山@@
欧盟
楼
菲
眼
还要
源
清
合理
分子
字
操作
正常
活
火@@
举办
不再
相同
核心
团体
in@@
W@@
怎么样
经营
确认
沙
教师
名@@
议会
专门
食
趋势
孩子们
工@@
年度
往往
记得
指定
回到
毛
查
广告
下午
协商
笔
职
文章
al@@
工人
并非
扩散
交通
构成
民@@
墙
4.
百
1.@@
能源
石@@
描述
瑞
公开
战
14@@
作@@
运行
兹
低@@
每个人
重申
原@@
最佳
页
持续发展
住在
17
有着
使得
背景
担任
约翰
之@@
史
统一
产
明@@
旨在
比如
20@@
现有
c)
知
坏
看@@
实验
主题
脚
棒
成员国
结@@
税
旅行
性质
床
身@@
实践
博
19
策略
平@@
道路
管制
倒
身上
草
对象
作品
红@@
最新
对@@
求
干@@
今后
起@@
膜
关
不可
比例
1)
五十
一系列
开放
承担
家里
平衡
油@@
适用
1999
世
不管
看来
在此
V@@
落
纸
直@@
角色
黄
用@@
16@@
靠
古
提议
女@@
创新
基金会
为此
性别
东@@
呀
攻击
办
伤害
族
症
预计
思考
经费
核@@
批
准则
预@@
富
军@@
下去
特性
子@@
丁
5.
女儿
统计
森林
帕
更大
财产
外国
现实
很难
入@@
命令
不到
后来
车@@
旅游
放弃
应对
分配
正是
环
100
正如
信号
卖
这类
坐在
包含
超
事业
失败
平均
不错
专@@
市民
空气
吸引
理
突然
不用
显然
移
罪
(@@
地点
污染
商品
传播
肉
17@@
防@@
男子
木
债务
病人
障碍
群体
战@@
澳大利亚
效率
师
一级
从来
充满
纳入
北@@
两国
然
适合
指标
24
养
伊朗
来源
切
造
伦敦
专员
2.@@
享受
规模
普通
辩论
中央
民族
报@@
飞
木@@
黑@@
放@@
地球
投资者
维持和平
表面
收集
角度
密切
机场
昨天
拉@@
泰
丹
授权
高度
损害
产业
骨
或是
重要性
旧
检测
于是
无论
6.
登记
J@@
军队
货物
接触
液
漂亮
一旦
学院
药@@
天气
寻求
三@@
立即
圣
体制
步骤
而@@
短
血@@
中国@@
部长
增强
年龄
修改
分别
结合
似的
乐
打电话
看法
刑事
睡
消费者
医疗
变成
箱
精@@
违反
打开
应@@
社
龙
宪法
之中
订
上升
农村
有限
性@@
推@@
灯
男孩
教授
31
国际@@
排
相互
移动
理@@
欧
详细
什么时候
特定
日期
f@@
绝对
化学
丈夫
借
情@@
制作
病@@
警方
牛
来@@
赫
球@@
尽
痛苦
身份
en@@
索赔
宣传
意大利
定期
投@@
意识
三十
教@@
远@@
力@@
必
运
颜色
袭击
卫生
好像
蒙
陈
宣言
运作
化@@
料
公
贫穷
篇
立@@
结婚
供应
铁
愿
之外
术
有趣
科学家
连接
7.
方@@
伟大
英
习惯
进步
科技
那种
戴
移民
s
每一个
不足
算
设置
不得不
朗
面前
糖
温
罪行
立场
总部
依然
美丽
手术
样
保险
捐助
抱歉
月份
联@@
门@@
达成
40
资
排@@
金属
各个
在内
C
停
病毒
飞@@
封
民
倡议
主任
签署
全世界
乱
走@@
站在
审计
待
采购
记
奥巴马
苏
22
百分之
就要
基因
公园
一致
玛
at@@
适应
依据
考试
预期
不好
测量
若干
适用于
算法
厂
[
加以
台湾
幸福
关心
保健
微@@
离@@
音
那儿
很高兴
兴趣
支出
今晚
数据库
弄
虫
发展@@
付
当@@
到底
屋
歌
途径
减
忙
取消
列入
说是
劳
怀疑
尝试
认识到
上面
]
神@@
假
强烈
心理
2)
8.
轻@@
装@@
取@@
见到
发布
马上
乔
答复
受害者
核武器
迈
注册
境内
速
提@@
遇到
信任
职位
太多
距离
运用
大型
居
程
像是
汉
w@@
管理@@
即将
枪
文书
底
or@@
召开
事@@
何
到达
多个
除非
青年
例子
安装
资助
粮食
不了
如今
相比
来到
车辆
切@@
酒店
下列
出席
私人
营
奖
贫困
音@@
一半
救
紧张
计划署
亲@@
财务
幅
做什么
优势
留
工厂
发达
23
投票
修
i
云
登
以外
丰富
货币
决策
刚才
回顾
石油
照
工艺
标的
街
el@@
抗@@
版
看着
赢
孔
成绩
视@@
鼠
足
高兴
太阳
里@@
十一
致
大规模
西班牙
反映
培养
展开
下面
不需要
资格
工资
常常
分享
海洋
作业
变@@
感染
仅仅
编
拍
有没有
尚未
及时
机器
评论
梦
周围
差异
啦
印
200@@
总理
随后
编制
创建
雪
警@@
请问
么
家人
自我
成就
理想
表@@
实体
终于
有权
各方
资本
政治@@
否则
编写
首次
麻烦
真@@
驻
北
试@@
首脑会议
咖啡
如@@
在@@
学会
体育
卷
对不起
老板
e)
技能
圈
以@@
的确
9.
60
重建
名单
易
端
官
部署
双@@
员额
启动
数@@
动力
展示
朝
古@@
阻止
巴西
本国
艾滋病毒
改
临床
冷
d)
归@@
各@@
鉴于
多数
墨西哥
3.@@
科索沃
满意
顾问
指数
兵
on@@
实
消费
图书馆
路上
免费
v@@
品牌
遭受
苹果
刘
委
温度
议和
得到了
击
尤其
相对
予以
王国
有限公司
非@@
妈
想象
猫
占领
命
密
望
腿
跳
日子
礼物
贵
/2@@
投入
─
致力于
B
提升
%,
公布
信心
态
落实
道@@
享有
细@@
阅读
痛
28
欧洲联盟
存
男性
解@@
翻译
团队
将来
人生
服务@@
进口
相反
沃
路@@
杜
声@@
华@@
管@@
鞋
执行情况
方便
境
格@@
卢
未能
黄@@
等等
照顾
字@@
刚刚
观
后果
%
o
政@@
曲
此类
秘密
左右
埃及
提案
朝鲜
量@@
职能
秘书
完善
抗
保
可能性
自身
持
紧急
基@@
肯
霍
早上
航班
指控
接近
夜
26
),
国际法
脑
所有人
河@@
27
克@@
进了
含
上午
圣@@
真实
1998
西方
追@@
基础设施
情绪
意识到
哪些
梦想
3)
促
等待
钟
其他人
伊斯兰
政
食@@
集中
土@@
雅
俄
搞
参数
美国人
2009
事故
巴基斯坦
镇
返回
经理
时刻
随
期望
全体
严格
韩国
―
初步
服
答案
亮
负
指示
公正
物@@
康
和@@
客
鸟
互联网
民间
传
他人
西亚
带着
沉@@
兄弟
所谓
配@@
出售
不够
二@@
开支
众
决心
强@@
异@@
整体
难以
逐渐
黎巴嫩
波@@
消@@
隐@@
脱@@
进@@
4.@@
t
雨
平台
关@@
久
完整
平民
雇员
修@@
机关
节目
图像
好处
退@@
至关重要
演
少数
建造
房屋
讲话
冷@@
桥
增
那时
直
规范
连@@
仪
建@@
今日
五@@
年轻人
注
岩
连续
获取
刀
某种
谨
道德
冰@@
警告
独@@
忘
弹
见@@
其中包括
更新
菌
忘记
你好
题为
过渡
先@@
人物
发言人
害怕
不久
000
S
难@@
形@@
四十
意@@
流动
著名
配
提醒
L.@@
如下
产@@
急@@
味
职责
强大
类似
造@@
深入
洗@@
夫人
摘要
能量
治
争取
本人
赔偿
伤@@
输入
生产@@
住房
至于
游@@
奥运会
一块
破@@
运@@
it@@
武装
顾客
多么
落@@
表演
为止
混合
斗争
睡觉
博士
韦
感@@
证实
现状
断@@
基地
认真
美好
节@@
固定
眼@@
模拟
杂志
*
标
清单
英文
顶
尽快
摩
为何
推
宗
毛@@
头发
相应
田
更为
草@@
断
耶
湖
息
亲爱的
现@@
诊断
家伙
洗
控
代@@
现场
利亚
批评
馆
藏
容
合适
加工
写@@
物品
偏@@
29
商@@
见过
改@@
毒品
标@@
敦促
游
点@@
推进
莎
养@@
地址
亚@@
颗
U@@
彻底
整
地上
小说
神经
聚@@
额外
多边
照@@
小姐
母
说过
不应
探索
后面
公平
福利
名称
聚
扎
做到
P
喷@@
红色
ic@@
球队
集@@
外交
受伤
局长
要@@
转移
全球化
主管
决
婚姻
感兴趣
唱
生效
货@@
各位
循环
工作@@
土耳其
比@@
担保
皮肤
便@@
法案
俱乐部
整@@
完美
英@@
绿色
作者
级别
)@@
活@@
茶
交换
爆炸
生活在
说@@
投资@@
效应
校
制裁
紧
刺激
商店
越来越多
超@@
增@@
嘴
运动员
留下
叙利亚
农民
劳动
es@@
思
佩
尔@@
审判
气候
当中
分类
199@@
就@@
得以
衣
非正式
教育@@
样子
生存
1997
脑@@
什
百@@
选@@
吃饭
县
汤姆
分布
报纸
日益
侵犯
每次
朱
观念
权@@
古巴
私@@
气候变化
中间
释放
火车
副
通信
能@@
股票
烟@@
举
演@@
果@@
剧
卫星
et@@
准
革命
升
视频
球员
婴儿
冲@@
代理
齐
希腊
前往
’
同事
行动计划
因而
燃料
护@@
取决于
氏
可靠
炎
○
负担
元素
提及
许多人
宪章
外面
遗憾
短@@
华盛顿
风格
边界
本地
蓝
1995
厚
这家
测
0.@@
并@@
青@@
有用
航空
参加了
松@@
独特
两@@
乌
跳@@
交给
异
拟订
行使
南非
酒@@
25@@
击@@
存@@
回应
社会主义
治理
形象
6.@@
鸡
准确
经@@
世界@@
王@@
对待
致@@
讲@@
聪明
想到
校@@
合法
事物
美国@@
原来
堡
开心
组成部分
200
面积
财富
响
外部
小孩
从未
早期
冰
考
潜在
粉
候选人
首@@
战斗
不少
重复
玻璃
文明
前景
审
赞赏
500
瑟
利润
很少
死@@
官方
1994
监狱
接着
松
琳
D
散@@
组合
圆
假@@
凡
测定
青少年
追求
机械
码
遭到
桑
银
戈
诉讼
够
其@@
现金
胜利
谢
会谈
周末
恐怖
男
引@@
万@@
示
集体
瓶
利率
数目
糟糕
引发
雷@@
纤维
千@@
累
掌握
领@@
转让
奇怪
大脑
露
自从
大小
共@@
留在
科@@
予
各国政府
射
委员
救@@
太平洋
动作
服务器
用途
国外
称为
多种
人力资源
探@@
巴黎
单独
销
杂@@
地震
降
杆
百万
1996
支@@
房@@
香
休息
于@@
密@@
年中
流行
酶
出版
与会者
经济发展
冲
各自
优化
环@@
假如
消失
汤
世@@
减@@
求@@
嗯
形势
说道
加快
修正
依照
尚
言@@
最初
势
分离
跨
果
人才
进来
村
收益
白色
数学
停@@
纸@@
洞
般
某个
务
导
互@@
记住
挺
房地产
00
依赖
户
论文
井
5%
雪@@
有利于
展
其他国家
应用程序
穿着
铁路
则是
成长
种@@
迷@@
惊@@
不幸
ol@@
再@@
四@@
许
满@@
灵
影
彼此
大概
一道
国王
猪
商业@@
检
皮@@
技术@@
突出
敌人
出生
爱情
留@@
沙@@
指@@
投
听@@
尽可能
德@@
士兵
含量
有所
逐步
被认为
附
宝
合成
乘
免
暴@@
5.@@
爱@@
国际组织
信@@
是指
愉快
er
日内瓦
对方
园
初@@
动态
常驻
细节
大使
得出
上诉
am@@
罗马
声称
从@@
镜
付款
降@@
re@@
散
涉
明了
期@@
义
之下
发生在
前面
东帝汶
关闭
堆
1/@@
记忆
季
延长
监管
害
领
遍
哪儿
俩
民众
医@@
期待
年底
轴
牙
好好
任命
钢
布@@
失
着@@
母@@
常@@
y
副@@
实验室
诗
看上去
守
烟
起诉
大大
效
添加
守@@
雇主
飞行
边@@
罗@@
拟议
所在
代码
甲
被@@
减轻
衣@@
老人
胡
佳
巴@@
苏丹
湾
新型
梁
多次
核准
法律@@
7.@@
场所
带@@
记@@
矿
人民币
磋商
突@@
干预
研究所
斯@@
粘@@
袋
脱
温@@
商定
争议
设法
参@@
查@@
炉
苦
妮
现时
餐
质@@
文本
账户
宾
赢得
到@@
j@@
身边
推出
近年来
自愿
一边
is@@
80
亲
合并
子女
承@@
构建
裁军
居住
富@@
回去
il@@
种族
观众
替
生态
主动
举行了
医学
默
I
企业@@
m
成熟
市场@@
1993
迹
公务员
配置
邮件
阿@@
包装
中国人
别@@
圆@@
海外
2010
与此同时
具备
配合
路线
创
国家@@
推广
文化@@
杨
人群
会见
沟通
铁@@
z@@
优秀
胜
新加坡
穆
条文
繁荣
惩罚
链
对策
堂
玛丽
锁
上班
尽量
取代
色@@
体现
d
说法
文学
中国政府
耐@@
意外
专
一百
高校
协
射@@
雨@@
辛
充@@
脚@@
条例草案
工业@@
检验
实在
熟悉
柱
慢
折@@
转变
实质性
蛋白
演讲
失望
毒@@
感情
发达国家
金融@@
土壤
吃@@
胶
保存
以往
图片
1990
规
也要
宁
宽
70
略
生长
应在
有一天
国会
施
南部
限
乐@@
:@@
划@@
舞
舍
阴@@
摇@@
蛋
劳@@
耶稣
谈谈
仔细
司机
进去
讨厌
观@@
补
布什
夏
贩运
研讨会
滑@@
修正案
观察员
识别
融资
藏@@
编@@
数额
太@@
书@@
盐
友好
而已
迟
始终
能否
背@@
本来
弹@@
差距
现代化
短期
认可
尼@@
期限
更高
地图
最多
法规
壳
参考
有些人
碳
导@@
供@@
唐
吸收
可怕
补偿
静
拟
‘
月@@
乳@@
常见
出发
谱
餐厅
武装冲突
退
破
怕
流离失所
分析了
骨@@
证书
会@@
肉@@
逮捕
甲@@
上涨
农@@
可爱
主权
新闻@@
印@@
电子@@
夏天
有时候
绝@@
费@@
备@@
荷兰
氧
恐惧
业@@
苦@@
难道
出现在
团结
英里
图@@
曲@@
举措
演员
判断
le@@
方针
博物馆
函数
潜力
针
癌
防
表决
简@@
答
随@@
翻@@
主意
此次
咱们
股@@
主张
待遇
倒@@
大陆
初
指南
,000
效力
顺利
另一方面
地面
ch@@
公里
逊
不必
截至
考@@
90
情形
教堂
麻@@
助@@
告
标志
发射
瑞士
尾
硬
透明
判决
秩序
含有
听说
赞扬
宫
随时
供应商
饭
系列
派@@
•
等@@
幸运
绝
寄@@
细
公共@@
友
积
科威特
un@@
材
窗
删除
证券
题
惠
拨
快@@
访
男女
灵魂
年内
怪
极@@
庆祝
吨
志
约会
毕业
猜
毒
共有
呼吸
边缘
拥
林@@
专题
赞成
谈论
吸@@
游客
恶@@
冠军
什么事
典型
网络@@
哭
T
谴责
助理
矛盾
最低
促使
垃圾
阳光
在线
拘留
矿@@
总额
慢慢
抽@@
苏@@
明年
举@@
什么样
自行车
便宜
软
M
接下来
劳工
推行
做好
黑色
贾
搜索
补@@
引
竞争力
置@@
征@@
替代
哈@@
4/@@
广
电池
危害
何@@
束
多久
信贷
没什么
银@@
情报
索马里
拉斯
便利
侧
主持
卫
景
左
看到了
练习
多样性
不仅仅
戏
半@@
紧@@
逻辑
as@@
缺陷
一些人
桌子
峰
付出
恶化
假设
课@@
患
采访
茨
依靠
抓住
招@@
差@@
空中
一会儿
应付
装备
低于
国有
ou@@
成分
婚
气体
作家
8.@@
艘
香@@
租
周@@
总结
显得
浪费
同学
处在
贸易@@
赋予
一段时间
徙
救济
外地
烧
版本
免疫
透过
海关
泽
台@@
模@@
敏感
众多
星@@
大学生
男@@
客@@
赞同
原理
闻
现行
汇@@
一定会
糟
阻碍
政和
语@@
置
各级
泰国
班@@
意愿
阳
谈话
解除
父
包@@
芬
转换
否
中文
鬼
足@@
花费
禁
国民
混@@
确@@
干什么
觉
理念
航
鱼@@
宇宙
技巧
轻
岛屿
收费
热情
生气
微笑
不利
末
筹备
庭
背
测@@
桌
江
学家
贸发会议
私营部门
首都
蓝色
遗@@
排放
展@@
旁
上学
上去
30@@
层面
和谐
暂时
裁决
小型
信仰
加上
与其
卢旺达
任@@
品质
碎
所@@
属性
代价
厄
尤
爆发
定为
影@@
仪式
家中
许可
并未
很长
护
近@@
薄
命运
反恐
ad@@
机器人
撒
视为
管理局
会计
周期
跟踪
智能
定位
兴奋
营养
纪录
参观
终@@
扬
强度
不论
10.
依
再也
懂
瘤
感受
透@@
智
弱
吹
迷
首席
不行
说什么
秒
约@@
抓
下跌
45
不去
开车
编辑
议题
动议
分为
4)
9.@@
资@@
诸如
辐射
生日
心里
潮
政党
300
ro@@
护理
土著
队伍
邦
太太
原子能
本书
胶@@
关联
导弹
足球
h
兰@@
较大
品@@
债券
文字
智慧
研究人员
益
清洁
凝@@
录
克服
驾驶
面包
毁
不敢
愿望
酸@@
国务院
更改
步@@
到来
托@@
客人
夜@@
残@@
休@@
先进
拜
嘛
早@@
水果
哪个
领袖
防治
处@@
产量
劳动力
西部
内地
旁边
哥伦比亚
乌克兰
省@@
ur@@
行政@@
礼
税@@
钢@@
11@@
条@@
制品
熊
灾难
00@@
街道
筹资
固@@
帮忙
筹@@
共享
斗
乡
寄
有利
农
然@@
款项
没事
大楼
列出
生意
群岛
才会
35
刺
适@@
轨道
24@@
x@@
对手
乔治
不愿
备
枚
一是
放松
中东
发明
那边
解决办法
遇
待@@
没错
专家组
个@@
新西兰
输@@
捐款
插@@
行动纲领
要素
兼
算@@
加速
八@@
到处
讲习
噢
底@@
翼
目@@
善
推荐
制止
女子
学者
坚定
渴望
绿
验证
公寓
地雷
片@@
巩固
通报
破产
遭
削减
既然
活力
禁@@
至今
出色
民主党
情感
聚会
退休
发行
建筑物
分发
物体
乘客
服装
格式
醒
症状
透
游泳
昨晚
可行
船舶
探
预
忽视
26@@
北部
马克
总体
案例
X@@
盛
全是
归
询问
基本上
部@@
不对
优@@
工会
层次
评@@
带有
泵
汉@@
套@@
欢@@
稿
衡量
规律
有所@@
这本书
拖@@
扩展
互相
触@@
法治
赛@@
野@@
往@@
羊
怎么办
贴
os@@
牛@@
异常
物理
繁@@
l
审@@
模
简直
约有
极大
刚果民主
印象
薪
6/@@
中华
枪@@
之内
议@@
网@@
扮演
规@@
菲律宾
严@@
船@@
而非
瑞典
究竟
软@@
不可@@
影片
陷入
画@@
刻@@
恐怕
桶
能不能
胡@@
暴
中期
江@@
损伤
稀@@
域
联络
发起
监察
种类
2/@@
计@@
区别
出于
诉
灵@@
主流
各地
顺@@
闪@@
创作
金钱
广播
效益
职务
呆
欲
欧元
主人
纪念
公路
抱怨
模糊
野
币
常会
3/@@
送到
祝
耳
p
ma@@
妹妹
形状
储存
岸
缺
米@@
双边
人为
佛
营@@
铜
饼
滥用
缅甸
谷
隆
封@@
灰@@
国籍
酷刑
有益
振
特色
汇率
翻
吃了
冲击
少有
英雄
走向
阿根廷
立法会
舞@@
持久
登@@
兴@@
徒
舒服
航@@
中学
艺
证人
心情
婚礼
共识
体验
ac@@
宝@@
简
越@@
为期
基本@@
舱
查询
担忧
张@@
购物
虐待
生成
教练
/200@@
祝贺
此@@
检察官
激烈
认@@
卡@@
技术援助
转向
企图
保罗
盛@@
坐@@
骗
一般性
升级
27@@
彼得
决@@
摆脱
座位
那天
容忍
想起
阀
普@@
淡
收购
周年
副主席
横@@
乎
法令
剥夺
愤怒
麻
度@@
必然
哲学
阁下
住宅
怀
信息@@
一方
这么多
渠道
设想
残疾人
压@@
28@@
栏
青
自由@@
最为
廉
维也纳
单元
提请
范
浆
谈到
际
高中
维@@
云@@
穿@@
树@@
泡
种植
所有国家
世界各地
人体
务@@
不知
买@@
友谊
数据@@
尽@@
真相
起草
终止
正义
前进
绿@@
不如
11.
1992
ri@@
抑制
通讯
通道
警
失业
接到
家长
元@@
话题
一面
对付
检讨
孙
未@@
违@@
饮料
名为
拉丁美洲
派遣
立刻
吴
丢
磨@@
疯狂
秀
盒
高于
玩具
许可证
解决方案
线@@
升@@
Y@@
灾害
增进
抗议
教会
ed@@
刺@@
厨房
广@@
一把
医
小心
甘@@
赖
存储
湿
世界银行
耳@@
达@@
柜
粗@@
O
味道
积@@
协作
注重
例外
两者
废物
血液
S/200@@
潜@@
知识产权
上周
净
故障
嘿
牛奶
艰难
明星
采@@
汁
角@@
灭
津贴
一生
旅游@@
旅馆
业绩
旅
演出
判@@
Ch@@
喊
海地
干扰
提前
刚@@
敢
排除
爱尔兰
坚决
创@@
否认
电路
见面
裂
暖
马来西亚
电子邮件
抵达
癌症
腐败
债
50@@
送@@
换@@
灰
不愿意
蔬菜
粉@@
历
面向
分歧
质疑
强迫
困境
密码
隔
被迫
痛@@
&@@
轮@@
根@@
表格
叫做
共同体
止
怀@@
标记
196@@
保安
行李
争论
幼@@
和平进程
肿瘤
输
暗
档案
释
剩下
春
师@@
脆弱
频率
谷歌
轻松
制造商
妇
磁@@
23@@
精
壁
后者
任期
长大
早晨
改造
啤酒
申诉
40@@
切实
士@@
钥匙
发动机
胜@@
约束
c
E
喜@@
度过
签
地下
妨碍
工程师
肠
读者
锻炼
利比里亚
过度
挪威
统治
大卫
涂
持有
使@@
实地
活着
浮@@
以此
虚拟
找出
市@@
少@@
天空
透露
英尺
来文
贫@@
偷
各类
对抗
心脏
输出
透明度
越南
单一
饮食
键
论述
刻
玉
历@@
传递
不安
电力
农业@@
号码
赶
股份
继
纯@@
12.
骑
当作
个案
澄清
议案
扫@@
损
我家
粒
灵活
穿过
出口@@
欣赏
检@@
执@@
顶@@
确立
育
打破
煤
标签
混凝土
延@@
塞拉利昂
自然@@
–
围@@
酒吧
财@@
滑
合金
滴
用品
航空公司
常规
此事
欠
有机
牙@@
住@@
颁布
合作伙伴
赛季
磨
哥哥
无论是
韩
干嘛
纹
ot@@
港口
蛇
售
恨
拍摄
回报
表现出
使用@@
敏
惊讶
呈
将要
乐观
容@@
本条例
上次
ra@@
卷@@
喜
干净
偷@@
差不多
黑暗
租@@
特别会议
金额
摆
被告
伍
用作
税收
体育@@
槽
须要
竞选
上来
欧@@
请@@
刑
花园
强化
调节
一体化
腺
色彩
大众
蛋糕
尸体
星期五
吸
今
拨款
缺少
临@@
混乱
仁
奖@@
职@@
缩
R
晶
奇@@
宝贵
距
争端
装饰
广场
邮@@
胸@@
价@@
不懂
密度
黎
5)
频
勇气
海岸
英镑
指责
艺术家
背后
素@@
科技@@
研
评
被视为
个人@@
局面
丝@@
发给
st@@
1000
驱动
练
一方面
静@@
布隆迪
功@@
竞@@
名义
曲线
语文
反映了
宽@@
耶和华
离子
引导
稳定性
当代
网页
总值
右@@
邻居
帐户
学科
生物@@
震@@
卡尔
每月
心中
官@@
承受
家族
前提
沙特
融入
沿着
抱
补贴
制备
下次
偏
提取
超级
近期
上文
种子
变革
念
超越
仿真
载@@
购
阻@@
围绕
察
缝
董事会
建筑@@
要么
喜爱
入侵
尺寸
修复
有过
幕
and@@
胆@@
动机
隔@@
黄色
n
效@@
胺
到过
围
饭店
酯
查明
顺
手册
过于
股市
会员
耐
家具
巡@@
洋
环保
卫生@@
代替
星期一
素质
折
互动
头上
13.
吻
听见
港@@
工作队
站@@
浪
塑料
荒@@
融合
权益
清晰
季度
当事人
识
吸烟
划
被称为
钻@@
经济学
列表
一些国家
发送
着手
晚餐
投诉
形态
右
时尚
施@@
交易@@
穆斯林
命@@
签名
逃@@
书面
筒
人民@@
几内亚
如同
营销
销售@@
该@@
泥
争
复制
失踪
选手
浅
看过
类别
古老
较好
罗斯
重要作用
罚款
行星
弟弟
内心
困
美洲
流程
签订
不一样
定会
吉@@
晓
32
理性
极端
回归
听取
1991
肌
荡
外国人
波兰
婚@@
丧失
南方
拖
涵盖
无疑
15.
教训
许多国家
保险@@
杀死
安全@@
响应
消耗
联合会
血管
席
提名
龙@@
法语
送给
灾
宗旨
宝贝
li@@
采
旋转
挂
不大
选民
农场
睡眠
阿里
场@@
想想
缓慢
朋友们
滚@@
续
舒适
剧@@
主体
尼日利亚
注意力
有组织
激励
户@@
物种
暂停
假期
扔
影响到
柯
冬天
巧克力
餐馆
免@@
怀孕
工程@@
X
尖
贴@@
走到
波斯尼亚
机遇
气氛
错@@
速@@
娱乐
废@@
屏幕
赶@@
去世
陪
死刑
目录
择
负责人
退出
为您
恶
麦@@
海上
朝@@
自杀
优
乙@@
新华社
k
发放
这时
当今
控制@@
党@@
笑话
相似
等着
寿命
布朗
维修
非洲国家
后续行动
罪犯
仲裁
土著人民
急
即便
0.
找不到
亡
管道
承
400
自治
湖@@
沉
14.
老鼠
遵循
函
童
要说
群众
政权
牺牲
判
药品
195@@
5/@@
拔
彩
东部
示范
接收
F
雄@@
其次
不起
争@@
高效
知@@
城市@@
ab@@
石头
姑娘
算是
发动
ing@@
想@@
拿到
磁
缓
%)
区内
_
国际贸易
战略@@
办@@
支援
迹象
了@@
只@@
拟定
夫妇
ir@@
治@@
甜@@
影响力
城镇
楼@@
恋
冒险
Q@@
早餐
小学
谨慎
辞
29@@
事宜
似
会晤
品种
伊@@
熟@@
财政@@
协调员
劲
锡
工作者
零@@
动脉
设定
年级
引入
细菌
少数民族
答应
液体
富有
监禁
着重
干事
左@@
荣
有力
何时
拯救
思维
剪
以期
传感器
自信
豆@@
轨
i)
乱@@
史密斯
遗传
us@@
脂
央行
特设
燃烧
乡@@
化合物
2%
乘@@
分开
Z@@
贵@@
海军
施工
这点
美利坚
疫苗
巴士
儿@@
教学@@
财
撞@@
和解
延
辅助
不仅是
间@@
永久
历史@@
居@@
x
尽力
残
构造
兴
姐姐
武@@
安静
深刻
囊
0
激光
烧@@
可怜
工发组织
实例
专利
冠
获@@
认知
银行@@
读@@
钻石
快点
恐怖分子
刷
本届
缺@@
腔
军事@@
交谈
那么多
闲@@
陈述
符号
因@@
仪器
天然
羊@@
这么说
落在
论@@
更@@
碰
坎
感激
船只
实质
阶层
核查
早就
'
弄@@
出版物
露@@
移@@
甜
靠近
办理
比率
总数
必@@
指明
英格兰
现代@@
远远
从不
实力
离婚
北约
人人
生涯
向@@
仍有
伸@@
离开了
较为
成效
St@@
律
聊天
杀害
人中
不良
剪@@
下载
自然资源
im@@
清理
医疗@@
追踪
诸@@
阐述
闭
帽子
必需
镇@@
喂
梦@@
永
狼
处罚
贩卖
长度
弹药
地理
监控
歌@@
原谅
数值
稳@@
这@@
继承
豆
订正
精力
传输
附加
苯
同步
刀@@
污@@
菜@@
债权人
池
建设性
神秘
个别
说服
义@@
宝宝
不停
相当于
酷
存款
椅子
写作
育@@
暗@@
勇敢
精确
聊
在下
足以
硬@@
合约
一代
占@@
等于
舞台
当选
肥
道歉
没@@
署长
超出
每周
奈
笔@@
地板
法定
威@@
死亡率
系数
故
雇用
熟
晚@@
开会
缩@@
更是
隔离
填@@
可见
窗户
叶@@
33@@
姓名
迫使
借@@
剑
奶@@
法中
原料
绕
跟着
伟
谘询
活跃
水中
毕竟
肌肉
全球经济
月底
外交部
之所以
杀@@
棵
终
充足
塞@@
洲
克林顿
账
解放
先前
火箭
毫无
氢
杂
碳@@
罚
估
险
乡村
储
应用@@
2015
不但
差别
审理
16.
种族主义
原始
社交
未经
播
径
文档
人家
纯
老年人
重组
引用
扣
混
陈@@
还@@
确信
摆@@
歌曲
至@@
时光
手指
毕
道理
职员
为主
努
扩张
另有
弃
阵
帐
视觉
好多
岩石
b
问@@
推迟
据说
id@@
言和
告@@
型@@
规划署
吸引力
更重要
议事规则
固
庞大
淡@@
城@@
调动
节日
端@@
巨@@
瓜
温暖
种族歧视
坡
狂@@
剥削
洋@@
针@@
太空
事务部
袭
实际@@
展览
架构
跳舞
上市
产出
边境
遭遇
复合
汇
面试
查看
考察
流量
续@@
车站
即@@
容器
不见
波动
人工
天然气
之上
开发@@
界定
纵@@
派对
愚蠢
兵@@
口头
分裂
鲍
可否
加大
对比
加州
疑@@
偿
ay@@
乌干达
永@@
心灵
周一
豪
77
疼痛
泥@@
缓解
器官
潘
订立
西藏
执法
挥@@
齿
抢@@
护士
脂肪
译@@
选项
话@@
7/@@
悬@@
香港@@
扎@@
秋
嘉
铝
陆
谋
客观
事先
田@@
圣诞节
・
签证
老婆
依@@
程@@
乌@@
析
_@@
的@@
武
匹配
1%
呆在
豁免
撞
交往
19.
设在
路径
大地
巴巴
信息技术
种种
社会经济
适
下雨
整合
顺序
框
伙计
由@@
再见
象征
平静
不确定
旅客
籍
观看
类@@
扇
炸弹
训
7%
阳@@
震惊
穷人
王子
教室
门口
刚果
错过
谋杀
物流
首相
91;
博@@
不满
洛杉矶
有害
摧毁
枝
良@@
村庄
寻
源@@
支票
17.
耶路撒冷
肯尼亚
卡车
回忆
奥地利
次级
拍@@
貌
应用于
标题
亮@@
ag@@
珠@@
均衡
邻国
骄傲
用以
尊严
广大
黄金
行政长官
摸
故@@
区分
败
内在
丹麦
残疾
加利
浓@@
春天
等级
罩
隧道
皇@@
劳动@@
变动
遥@@
重量
电台
闹
赚
区@@
碗
魅力
活性
介意
善@@
窗口
业主
即使是
祖
中国人民
浓度
场合
认
损坏
意志
优惠
技@@
价值观
授予
设有
卖@@
队员
葡萄酒
仍是
平和
清除
呃
甚么
极为
罐
诚实
旋
监@@
应力
何种
醇
间接
缘
暴力行为
做过
罪@@
20.
虚@@
Add.@@
暗示
简化
奶
芬兰
签署了
发言者
挤
大多数人
迄今
);
谅解
披露
勤@@
黑人
栋
大幅@@
床@@
逃
敌
G
棉
蛋白质
讲述
买卖
搬
倾@@
年初
臂
灯@@
此前
干涉
爬@@
告知
饿
伴
力学
东京
股东
指挥
经济学家
援
奥运
妇女地位
36@@
女童
攻@@
支撑
周五
护照
况
36
艺术@@
有效性
因子
篮球
分散
意图
石油@@
L
昂贵
指令
安哥拉
信用卡
安置
议
马克思
氧化
泉
通货膨胀
每日
比利时
弹性
室内
生活方式
白宫
18.
不然
f)
基督
胃
缺点
化学品
冒@@
个体
以使
讨论会
符
新鲜
偿还
公共汽车
服@@
高等教育
爆
无效
若@@
中方
制造业
任意
储备
纽
开关
重返
乐队
开发署
改为
毫无疑问
家庭@@
希@@
和平@@
卫生组织
腹@@
性格
抢
申请人
帽
回收
2011
计数
通用
良
尊敬
俗
雾
振动
餐@@
珠
鼓@@
单词
信念
灭@@
惯例
按钮
信托基金
优点
将军
行事
摩洛哥
北方
人格
季节
大厦
储@@
稍
民族@@
伦@@
真诚
宇
倾向
制成
坏@@
福@@
绑架
领先
致命
全新
疯
频@@
分之
塞浦路斯
本质
纳@@
不一定
跌
过境
川
主要原因
莫@@
顾
合作@@
烤
识@@
P.@@
设计@@
夹
录@@
驻@@
格鲁吉亚
订单
远离
突破
体重
星期三
思@@
本周
萨@@
商务
34
今@@
惊人
案@@
变量
不出
泡沫
琴
33
很久
档
8%
玉米
躺在
7)
度假
工程处
剩馀
科特迪瓦
肿
地铁
扫描
为例
生活@@
废
呼@@
抛@@
日常
阐述了
智利
链接
P-@@
进攻
37
合格
电流
肥@@
可行性
茶@@
研发
氧化@@
疗法
印刷
式@@
g
闭@@
选出
60@@
抽
成人
斑
重大@@
铺@@
康复
经营@@
不平等
人类@@
柬埔寨
桩
行政区
漏
宠物
虽
午餐
经典
ut@@
女生
糖尿病
原子
浮
实用
一层
直至
菌@@
发育
削弱
集中在
宜
悲伤
课题
外国@@
园@@
振@@
聚集
嗨
献@@
共产党
竟然
府
根源
返
利比亚
s)
备忘录
设@@
所得
携带
恰当
组件
找@@
ul@@
小小
国际会议
彩@@
环节
裤
薪酬
李@@
詹姆斯
擦
过多
极其
调和
何在
搭
节省
舰
这边
汽@@
孤@@
总会
私营
生产力
千万
销@@
组@@
挂@@
复苏
;@@
耗@@
言论
大力
春@@
极了
易@@
电子商务
疗效
完@@
ap@@
星期二
液@@
高速
卜
一千
伞
跟@@
做@@
走进
之际
处境
少年
相互@@
裁定
狂
读书
时间表
统
干燥
族裔
息@@
宣称
字母
故意
铺
招
相关@@
好看
批@@
巧
什么意思
4%
叛@@
委任
列@@
增长率
控@@
必要性
看出
天使
政府@@
V
众@@
偶
团@@
硬件
七十
耳朵
三天
陆@@
部份
女朋友
深深
均@@
遗产
看待
误
摩@@
除@@
放到
世界经济
quot;@@
整理
望@@
各方面
93;
之类
人力
明智
去过
所有权
带到
痕
称@@
鼓
N
芝加哥
常用
冻
移植
脱离
鸡蛋
国内外
院校
郎
不容易
星期六
随机
值@@
丰@@
裁
总督
变形
学术
鼻子
6)
购@@
礼@@
沿
很小
实验研究
安保
广州
球场
撤销
引擎
爸
凭
吞@@
氮
初级
炸@@
佐
赤字
崩溃
简要
编码
显@@
校长
吹@@
1,@@
地球上
歇
表情
消
积累
锅
使命
懂得
同情
主席团
与@@
对外
尾@@
无论如何
3%
宣@@
默@@
拘@@
尿@@
产品@@
付@@
强调了
600
ha@@
塞尔维亚
部件
跨@@
劳工组织
头脑
确
方程
规例
尼泊尔
忍受
纠正
认定
权威
街上
天堂
准@@
神经@@
决赛
书籍
注射
打扰
基本法
悲剧
脏
继@@
填
运营
硫
随便
积极@@
旅游业
界@@
就得
信用
拖延
学位
饥饿
苏联
模块
委@@
传统@@
共和党
炮
什么东西
功率
亚太
自动化
傻
确切
册
夜晚
约旦
止@@
毕业生
紧密
of@@
目的地
相处
视察
ent@@
证@@
被捕
阻
毁灭性
后勤
觉@@
克罗地亚
势@@
渔业
氯
待在
奖励
鹿
诉@@
时机
0/@@
长远
疼
亨利
最高法院
庆
作物
盐@@
ci@@
播放
利息
优质
成立了
眼镜
搭@@
征
其后
司长
21.
主导
牵@@
刑法
正当
独
荷
邻
术语
研制
凉
酱
个性
借此
当天
艇
金融机构
焦@@
焦点
激动
说出
跨国
独自
铜@@
丘
辛@@
商人
怎么说
沉默
迟@@
净@@
开玩笑
屋子
搞@@
创意
匹
手里
39
交通@@
插
周二
海滩
附@@
星期四
加剧
进化
无关
基准
乳
寻常
骂
囚犯
磅
绩效
过分
说明了
大声
同志
诚@@
生物学
公告
厉害
参与者
持@@
一开始
给@@
销毁
逼
嫁
长级
沙漠
甚
沟
就算
祈祷
g)
风暴
我@@
交付
环境保护
老年
主办
窝
亲自
犬
辞职
古代
宣
鉴定
欧洲@@
脸@@
强制
委会
名叫
回复
要点
部落
肩
验@@
认证
违背
中非
取得进展
精彩
一刻
瞧
谢@@
酮
生病
借口
垫
澳门
难题
序列
美国总统
帝国
含义
局部
史@@
37@@
孤独
企业家
咬
敦
根本@@
天才
位@@
汉语
龄
租金
A/@@
35@@
In@@
漂@@
碱
CE@@
追
设计师
6%
让@@
玩@@
盘@@
样品
级@@
板@@
家园
缩小
废除
大西洋
尿
横
荣幸
可以说
浪漫
忠
8)
插入
迄今为止
此时
衰退
22.
察@@
反恐怖
盖@@
正好
吓
清洗
祖国
裔
秘鲁
拿@@
线路
腰@@
辩@@
负@@
正常@@
数十
功
之时
保护@@
不住
压缩
深度
38
积极参与
螺@@
钟@@
序
柄
砖
校园
社会保障
运输@@
责@@
om@@
踢
ov@@
外交@@
等到
支持者
监视
三分之一
侦@@
样本
而又
误@@
资讯
可靠性
怎么会
失业率
预定
关节
市场经济
兽
把握
克拉
起飞
牙齿
佛@@
侵犯人权
唱歌
入境
逐@@
验
休
重要@@
受益
礼貌
48
木材
他@@
牧@@
滚
习
健
最@@
洁
魔@@
呈现
自豪
从中
详情
启@@
外交部长
象@@
基督教
难民署
讯
虎
乐趣
作战
前南
烤@@
昂
迟到
燃@@
预订
界面
兆
急性
消费@@
教徒
案子
电视台
猛@@
肝@@
为人
吓@@
薄@@
调解
运动@@
通信技术
肝
荷@@
周日
浴
反馈
肺
起到
起床
墨
腾
大国
领导@@
手续
高达
较小
爬
洪
裁@@
真理
爱上
文献
沮丧
构
娅
截@@
葡萄牙
旧@@
家庭暴力
衬衫
叔叔
$
赵
机票
返@@
乙
空缺
世贸组织
死去
粗
肖
卫@@
蒸@@
隐藏
em@@
江泽民
蒙古
ig@@
伏
化学@@
珍@@
上课
激@@
精度
菜单
申
鹰
公主
视角
23.
体会
旗
炮@@
大气
认同
抵抗
叫@@
格林
舞蹈
中断
电话@@
1-@@
拳@@
令人@@
洗钱
800
译
病例
像@@
协@@
拿出
电压
减贫
后续
过后
啥
弥补
西非
确定了
煤@@
甘
蒙@@
奶奶
150
款@@
詹
六月
操@@
短缺
酌情
自主
日前
鲜@@
爱好
居然
单击
圣诞
染
蕾
夏季
夹@@
研究@@
灾@@
订@@
每@@
有罪
周三
涉及到
树木
纪律
职业@@
喝酒
另@@
搬@@
祝福
领取
管辖权
叙述
吁请
趟
司法@@
粒子
怪@@
象是
恩@@
席位
各种各样
纱
来自于
烦
生态系统
产物
维和
交易所
无聊
实时
七@@
童@@
仓库
健全
贝@@
鞋子
五月
考验
保密
武装部队
太阳能
毫无@@
9/@@
东南亚
提示
尺
软件@@
今天下午
群@@
责
so@@
膏
10%
伙
肠@@
危@@
场景
稳
摄@@
不过是
十@@
吊@@
耀
衰@@
再说
专业@@
掌
24.
日益@@
2012
报酬
机理
市长
55@@
安全性
廷
深圳
尖@@
播@@
单方面
页面
共同@@
汀
进度
出租车
逆@@
刊
弱@@
臭@@
不只是
更换
延迟
燃
um@@
因特网
热爱
穷
ak@@
一头
av@@
本次
收获
烈
难以@@
会所
无线电
益@@
平面
金融危机
部位
迫@@
居住在
综合@@
波士顿
虚
莫斯科
写道
及@@
点儿
票@@
捕@@
协商一致
不公平
倾向于
强奸
会不会
图形
建立在
42
地带
钉
处长
委内瑞拉
藏在
介@@
阵@@
都@@
强有力
坑
埋@@
从前
最早
oo@@
锋
胖
处置
挑选
监
占据
演奏
正规
苏格兰
就业机会
apos;
储蓄
脉冲
委托
权限
美联储
乐意
启示
受理
七月
创业
绳
自我@@
无限
撒哈拉
瓣
炸
董事
热带
侵略
列车
冻结
科学@@
押
沃尔
收取
驱逐
沉重
补救
徐
河流
唱@@
汽车@@
25.
九十
遮@@
ec@@
先是
圣经
温和
拜托
蔓延
走出
其他地方
裂@@
迎接
卧室
世界杯
竟
钢琴
挖掘
牌照
得知
星期天
有意
汇报
词@@
专业人员
国际金融
受害人
昏@@
幻想
物资
溶@@
候
激
好事
散步
钙
库存
中午
副秘书长
卵@@
耐心
参
日本@@
犹太人
座@@
干旱
荣誉
捷克
层@@
48@@
噪音
鸣
焦虑
扑@@
临
将近
欣
词汇
组织@@
收回
盒子
伴侣
水资源
学到
微软
倍@@
险@@
应急
书记
吃惊
男朋友
得不到
中小企业
地方政府
修理
辩护
严厉
仔
接口
IS@@
Mar@@
屋顶
调查@@
博客
势力
家乡
缘@@
四月
线性
技
管辖
奇迹
坝
食用
脉
教科文
猎@@
京
次@@
斜
证券@@
一会
属@@
坛
诊
外长
线索
早已
选定
电影@@
穿上
渡@@
同性恋
挖
陷
负责任
什么地方
神圣
反复
策划
通胀
45@@
场地
ob@@
对着
无数
公报
观测
午@@
珀
严肃
绝大多数
关税
擦@@
富裕
上好
抓@@
26.
S/@@
试试
超市
顾@@
频繁
没收
伴@@
下文
接纳
蓝@@
可供
怒
直升机
r
句子
65
周六
箱子
也就是说
变换
芳
指引
44
加沙
激素
引进
难过
使用者
味@@
对应
大批
8/@@
解雇
研究报告
思路
命中
摊
时报
株
帅
灰色
违反了
戒
尘@@
址
暂@@
ub@@
带给
踏@@
好吃
诺@@
分摊
环境@@
塔@@
诊@@
售@@
尝
纳米
恰
开采
办公@@
泡@@
火灾
感冒
腹
修建
没法
能源@@
健@@
38@@
C.@@
习俗
景观
规约
心脏病
消灭
新年
百年
震
据称
列为
亚洲@@
配偶
3-@@
疑
巢
置于
39@@
短暂
割
误差
敬
冬
上网
雷达
模仿
日后
薪金
台湾@@
招聘
纠纷
玫瑰
评估@@
一向
阿布
略@@
汗
示@@
徒@@
勤
工业化
办公
y)
上个月
长官
扫
胃@@
口袋
壁@@
增多
罗伯特
27.
世界贸易
仅有
刑@@
守则
本公司
拨@@
植@@
谈@@
自然灾害
拍卖
三月
末@@
运转
腰
全球性
军人
展现
紧急@@
奥林匹克
相机
斗@@
人心
多样化
佩@@
脉@@
弯
烂
开幕
煮
航天@@
邪恶
冈
写信
一度
习@@
发挥了
附表
辉
幸@@
47@@
公式
钻
码头
报导
持续性
恒
节点
裙
负有
岩@@
约束力
激情
Al@@
大人
衷
特权
料@@
原本
国际法庭
掉@@
润
容量
欺骗
厕所
生于
非洲@@
当年
困扰
定罪
慢@@
东方
普及
牧师
填补
在场
供给
49@@
眠
周四
年纪
反而
飞往
延伸
恤金
前后
很@@
不好意思
鸡@@
有机@@
碎片
瓦@@
露出
三维
笑@@
卵
北美
报表
专注
遇@@
钱@@
掌@@
an
操纵
月前
公斤
无线
灵活性
发展问题
障
查阅
遇见
盯着
夏@@
鼻@@
索@@
达成协议
激发
对照
幻
惨@@
挑@@
注入
浸@@
即可
星球
漫@@
冷静
执行@@
织
43
长达
去@@
湿@@
饭@@
任何时候
庆@@
分析师
暴露
顺便
新闻部
犯罪@@
阔
封锁
塔利班
力度
氯@@
仿佛
41
硅
导演
机械@@
此后
平均@@
牢
副本
九月
包裹
动力学
管理系统
歌手
捕
猛
扬@@
CA@@
占有
大选
赚钱
初期
制造@@
角落
拆@@
贷
妳
互
求和
峰会
心地
相关性
航行
一番
份额
落后
次数
怎么能
28.
向上
换了
涨
才@@
消防@@
还好
爵士
执
穷@@
远程
住区
会议室
诗@@
害@@
骗@@
反映出
展望
汽油
厚@@
轻武器
一行
天天
海洋@@
194@@
干部
忧虑
手表
纯粹
仇
不再是
坚信
逆
大门
冠@@
保守
57@@
俄@@
研@@
晚饭
图案
敬@@
裤子
航空@@
绝望
势头
心理学
下滑
沿@@
指望
防御
维生素
农村@@
挡
施加
任职
夺@@
只需
庄
白俄罗斯
集合
窃@@
十月
忧@@
报价
第三方
点击
糖@@
农村地区
好消息
焦
音乐@@
树脂
酒精
代表性
牢@@
疟疾
严
竞争对手
大厅
街头
胸
醒来
新技术
雅@@
细则
阶
55
专用
限于
介入
茎
20%
市区
期待着
u
引渡
有义务
保险公司
29.
无需
名额
妻
账@@
东道国
高层
火星
一月
镜头
污水
滞@@
封闭
戒@@
寒@@
兼@@
提供给
熔@@
婆
外层空间
征聘
敲@@
坚@@
不可以
都市
漫长
犯罪问题
铅
事儿
串
跌@@
阿塞拜疆
乘坐
君
卖淫
拓@@
一般@@
应用研究
疑问
成年人
没关系
时有
称之为
兴建
盆
孟加拉国
房价
构@@
人道
划分
枯@@
英国人
旧金山
眼前
隆@@
小男孩
幅度
要到
赞@@
还给
抵@@
污染物
安慰
哈利
东盟
2-@@
奥@@
硫@@
命名
前来
反射
宁愿
偏见
匈牙利
地域
只在
毁灭
柔@@
他妈的
大多
放下
爷爷
调用
总之
警官
苯@@
画面
盗
编号
颗粒
十万
分解
空调
精神@@
理学
统筹
灭绝
退化
不止
久@@
本月
职工
遥远
郑
款额
裙子
电视@@
执行官
伤心
核裁军
辞@@
ev@@
节约
印尼
宏
炼
不当
提起
烈@@
赖@@
喷
老是
DNA
邓
荒漠化
芽
采集
字符
也许会
景@@
交叉
宿
缔结
好朋友
州@@
桥梁
步伐
黛
内阁
危地马拉
晚会
奋斗
趋@@
愈
零件
专门机构
公认
不妨
打印
哈萨克
橡胶
肺@@
埋
斯里兰卡
进出口
流入
折磨
危
这次会议
综述
赠@@
物业
妥
浪@@
ter@@
忍@@
契约
子弹
罗马尼亚
膨胀
大幅度
擅长
突
绘画
早在
半年
走路
戏剧
帝
书面@@
摄影
水泥
神奇
非线性
女王
相结合
雇
英寸
家属
开枪
污
氟
电话号码
缴
浏览
月亮
白人
发誓
尽早
正面
亚州
47
培
缝@@
价值@@
可惜
员们
号@@
一眼
地方@@
寒
柏
商品@@
怎么@@
操
负债
有关国家
基础@@
获悉
奋@@
控制器
生理
营养@@
借鉴
祥
漆
揭示
动物园
肢
西岸
买到
强制性
拜访
妙
参议员
铃
还得
5-@@
楼宇
50%
衫
患有
man@@
廉价
欺@@
可以使
调查结果
A/5@@
流行@@
英语@@
融@@
近来
大胆
吐@@
戏@@
后悔
宪
冬季
缓@@
扶@@
忽略
演变
参议院
蓄@@
不同意
分手
剖@@
哇
噪声
服务员
依法
讨@@
带上
寒冷
动员
新兴
节奏
洪水
双手
篮
瘦
od@@
突尼斯
彭
1989
永恒
递
56@@
诞生
尘
建成
日常生活
B.
产业@@
确定性
宁@@
描绘
亨
稍后
传说
范畴
iv@@
风景
丛
缩短
金牌
冯
样@@
姓
每当
变为
一贯
唐@@
58@@
奔@@
紧急情况
坚强
统计@@
克隆
渔@@
计量
首要
鼻
勒@@
指挥官
电梯
印发
玩家
享
志愿者
小女孩
盟
过时
齐@@
剧院
媒介
正式@@
朵
世上
不可避免
粮农组织
开发商
紫@@
南斯拉夫
尸
碎@@
球迷
厂@@
腐
饰
情报@@
商业银行
参照
目光
垂@@
介
渐@@
额@@
胎
白天
开办
智@@
帮@@
联合@@
移交
世界各国
有关@@
汇编
前途
服用
概述
烦恼
咖啡@@
复兴
附属
一句话
46
形容
慢性
杰出
主要@@
备选
布雷
适宜
一阵
只不过是
II@@
以至于
放射性
奏
影像
操作@@
收入@@
安妮
丢失
恶劣
劝@@
雇佣
驱@@
攸关
一体
诸多
质素
侵@@
我国政府
疏@@
俗@@
康@@
创伤
睡@@
经合组织
陌生人
排名
负荷
柱@@
拼@@
不适
击败
小麦
分区
法典
秋天
走廊
族@@
己
俊
浸
容许
集成
社会福利
联邦政府
强劲
旋@@
卸@@
带走
辣
电信
高速公路
复员
讯@@
ST@@
双重
闷
侵害
有效@@
磷
抛弃
捐@@
看不到
A.
零售
睡着
75
统@@
肩@@
es
船长
不准
策
候@@
皇家
5000
入口
发光
喀
制约
事态发展
30.
加热
犹太
装修
欢乐
荣@@
偶尔
惠@@
转型
长久
疲劳
征收
琼斯
观察团
摔@@
源于
广阔
大臣
人均
肚子
醉
高压
程式
智力
迎@@
碰到
商标
(200@@
今天晚上
首脑
基金组织
生育
电缆
牛肉
砂
预算@@
总裁
战胜
提问
微生物
走过
国内生产
镜子
瘾
无辜
递@@
改革@@
抚@@
la@@
昨日
骨折
普京
雄
赴
二氧化碳
实话
罢工
妹
拆
虫@@
quot;,
op@@
涨@@
国际货币
葛
名人
数千
绍
排斥
岗位
揭@@
下周
不时
基本原则
管理员
工商@@
彩色
紧迫
阶级
授
挤@@
促进发展
内涵
柴
欠@@
妥协
创造性
殖民地
困@@
疹
昆虫
论点
赞
多方面
钱包
渣
1980
戒指
电力@@
泰@@
贫困@@
冰箱
华尔街
上市公司
矮
限@@
战士
捷
组建
诚
没想到
不及
管理人员
大城市
深化
签字
众所周知
挣@@
奴隶
私人@@
那@@
带领
夫妻
院@@
准许
欧元区
逼@@
留给
光明
勾@@
填写
in
哥@@
再度
律@@
手上
底部
肌@@
全都
孕@@
施行
有名
留下了
仿@@
阴影
2014
电源
滴@@
月球
诗人
奏@@
装在
沿海
父@@
频道
会面
想像
欲望
屏
31.
轮胎
接待
迁移
数百
无须
沙发
盗@@
凶@@
好莱坞
热量
随意
音乐会
49
器@@
概算
勃
除外
剂量
联赛
放缓
SA@@
营地
动荡
慷慨
51
内陆
忠诚
纷纷
查理
运送
光谱
织@@
重要意义
流通
语音
短信
隐
卓
外界
融
砸
以免
办事
救助
自行
舒
刊登
立法局
称赞
K
特区
丢@@
进口@@
碰@@
氨@@
衡
迷人
脑子
长期以来
甲基
竞赛
46@@
高温
途中
32.
医药
猎
前任
招募
加纳
莲
Sh@@
监督@@
京都
自由化
散发
朝着
把@@
珍
盈利
例@@
社@@
风险@@
误解
鸭
提倡
服务业
脖子
诱@@
射线
一同
烷
携@@
车子
CO@@
1,
证件
授@@
善良
不足以
冷却
支柱
来临
严重@@
村@@
毫不
鱼类
说说
静脉
代理人
行驶
狮子
某种程度
假定
同行
拥挤
催@@
军方
旁@@
图书
苦难
逃避
合法性
扩@@
国民@@
单纯
信件
私
好玩
芯片
信誉
摘
研究生
梯
十二月
楼梯
视野
走上
有待
驾@@
鞋@@
改革开放
进而
v
匠
撤出
天后
政府官员
姐妹
飞船
开启
开设
要不要
贸
奎
穿越
近日
星星
特殊@@
召@@
深信
放心
一点点
漏@@
跑@@
现实@@
高科技
一致@@
举例
代谢
存在于
倡导
旅程
攻
摩擦
橡@@
岸@@
时限
拥抱
粮食@@
传送
八月
尴尬
凶手
丰
忠@@
按@@
美味
迫切需要
四周
残忍
贼
心理@@
现出
赞助
辨@@
跨国公司
凸@@
手臂
射击
援引
标准化
配备
感受到
审核
迁@@
苗
必不可少
会儿
脊@@
系统@@
午饭
霜
军官
民事
清醒
责任@@
纲要
珍妮
权力机构
获胜
葡萄
财务报表
武装@@
撤离
只好
山区
晶@@
最终@@
狄
拐@@
冒
迁
怒@@
惹
好奇
蚀
烦@@
弦
刮
猴子
垂直
邮票
诊所
再生
2,@@
对面
整天
登记册
语法
不在乎
一时
兔子
报复
多元
官方发展
C/@@
滋@@
宏观经济
涅
东亚
卑@@
平时
9)
成年
梅@@
壶
局@@
遗传@@
高质量
树上
眉@@
奉@@
逾
真空
支配
鼓舞
鲁@@
2013
33.
店@@
知名
一流
采纳
构想
研究中心
羞@@
邻@@
9%
ow@@
晕
工作方法
审计@@
题目
闹@@
盲
旺
死者
饰@@
火焰
挑
魔法
地毯
宫@@
录像
垄断
后代
注@@
步行
宋
资本主义
+
大海
隙
薪水
充
硝@@
国都
本着
比如说
勇
多媒体
摊@@
削
通讯@@
幼儿
温室气体
科学技术
纪@@
答@@
部地区
人权问题
定价
重新@@
摇
腐蚀
学期
圆形
响@@
ep@@
眼泪
硬币
党派
密封
1988
范@@
阐明
竹
道德@@
鲜
/C@@
气味
罕
我国@@
飘@@
叹
否定
兔
纪
体积
耕@@
人口@@
喝@@
骨头
抵制
开门
34.
游行
消极
艰苦
败@@
垃圾@@
脾气
弯曲
百分比
用性
瞬间
地质
中了
大于
伯@@
租赁
恋@@
澳
契
昌
运气
姑@@
统计数据
收缩
规格
笼
下班
就业@@
丸
天赋
恋爱
树林
花钱
投票@@
问责制
光线
行走
刚开始
政府部门
h)
惊奇
飞行员
豪@@
集会
坦桑尼亚
讨
驱
做事
锌
农产品
架@@
假装
严峻
油价
宾馆
残酷
预先
网球
水域
砂@@
一致性
宝石
玲
美女
调控
实在是
下一步
卡特
臭
墨@@
艾@@
伤亡
伤口
轴承
专家小组
通往
惊喜
藻
柏林
题@@
下车
女孩子
淋@@
赶紧
中部
别克
役
朗@@
此刻
折扣
米兰
裁判
创立
诗歌
仙@@
测验
稍微
反正
付给
唯
再一次
情景
随之
等候
颈
编程
出血
导航
ion@@
明亮
抢劫
乙烯
打造
丧生
大自然
oc@@
典礼
孔@@
碟
实验@@
窗@@
全力
性别问题
申诉人
版权
吐
状@@
初次
筹措
亚美尼亚
仍未
罕见
2(@@
印度@@
混蛋
禁令
笔记本
幸
织物
〔
一路
标志着
轰@@
35.
渐渐
腐@@
援@@
渗透
定向
扣@@
珍惜
内存
看不见
劫@@
日报
肥胖
电动
经委会
城里
性感
矩阵
丁@@
坚
皆
瑞@@
记忆@@
年会
幽默
避@@
通信@@
光学
国防
往来
传染病
治安
空白
此举
聘
颇
奖学金
城堡
撕@@
控件
行政当局
仰@@
精英
具@@
日志
财政司
厄瓜多尔
宴会
30%
破裂
构成了
始
700
是非
走在
一分钟
on
滤
变更
外套
秋@@
赤@@
僵@@
整体@@
签@@
出台
浅@@
员@@
不安全
不那么
做成
大师
陶瓷
奖金
本土
)(@@
听说过
算了
我方
爽
阴
电器
稻@@
买方
禁运
停车
岭
相互作用
%@@
训练@@
谋求
有关部门
分成
成像
59@@
货币政策
传媒
创新@@
捐赠
甚@@
卧@@
即时
海洋法
电机
将@@
鬼@@
舞会
趣
新生
照料
丙@@
亦会
美妙
撒@@
涌
上空
潮流
全身
有空
营业
遏制
缴付
产权
少女
广告@@
宿舍
玻璃@@
轻微
供水
颁发
垂
又一次
映
舌
冬@@
灌@@
36.
救援
毫不@@
转化
凭@@
月初
剩
稍@@
ell@@
斥@@
银行业
53
壮
统计数字
注定
内外
伸
促成
井@@
赶上
罚@@
股价
2006-2007
图表
幢
猜测
基层
f
路易斯
发电
总共
耻
军事行动
宿@@
扶
享@@
充分利用
荡@@
蜂@@
规章
120
囊@@
泳
幼
管理层
绑
跨越
悄@@
是@@
依赖于
仲裁@@
呼
用水
筛选
研究者
闪
把手
欣@@
燕
缸
涉嫌
晶体
ht@@
铸@@
径@@
供应链
叉
玉@@
熊猫
中止
天线
墓@@
贬值
外资
(199@@
执照
葡萄@@
老虎
称作
80@@
口中
斑@@
10.@@
最具
裁军谈判
洒
魔
致使
谦@@
烯
童年
困惑
开来
泛
转移到
C.
敲
澳洲
左边
爆@@
珍贵
质询
轿车
易于
杀人
气象@@
流动性
服从
浴室
H
很不错
生长@@
福特
37.
偶然
水准
操作系统
大韩民国
绪
降至
仇恨
均匀
桃@@
迪@@
捍卫
70@@
郭
矩
舒@@
郡
探测
海底
壮@@
ill@@
缴纳
处理@@
辈
召集
~@@
人事
幽@@
里约
洛克
涌@@
分段
拓展
拔@@
桃
约定
世界大战
分数
绕@@
树立
启
探员
物理@@
入境@@
叶子
th@@
无力
升高
综
院长
男生
跑步
有事
心态
一口
3000
巨
会计@@
索引
兑
申@@
篇@@
不上
紫
雅典
异性
52
妇女@@
夜间
慧
拼
样式
预约
z
好人
催化
增至
财务@@
娘
排放量
较多
申报
复杂性
溪
薇
较@@
选举@@
建模
遣返
棋
涉@@
革
ang@@
少量
心理健康
传达
轴@@
〕
发票
失业@@
布置
碰撞
ard@@
极限
上床
相对于
推翻
乎@@
孤立
底下
既@@
人选
椅
民兵
停火
成千上万
系@@
顾及
全国@@
辛苦
举动
有毒
皇
绒
电脑@@
三角
伏@@
模板
津巴布韦
煤炭
焊接
秘
公开@@
外表
据@@
情节
按时
经济合作
拿走
深处
配件
闲
化学武器
礁
毫米
伦理
行人
队长
牌@@
健身
出门
分支
公共部门
协调@@
蒸汽
藤
工作计划
优雅
含@@
帕@@
文件夹
耗
阿拉
季@@
火山
攀@@
概@@
牙买加
国人
头部
谓
吵
总量
始于
滨
减肥
问道
延续
依旧
堂@@
塑造
章@@
粮
毒性
和平解决
7-@@
所属
协同
土地@@
同等
更加@@
粒@@
地中海
平方米
屁股
红包
拜@@
政治家
难以置信
查尔斯
吕
4-@@
手法
转递
主持人
违法
画家
布局
犹@@
检索
其他地区
振兴
人性
空间@@
逐
当初
氧@@
可疑
嘲笑
多元化
听了
听众
四分之一
38.
也门
分担
实习
结局
汉堡
打败
券
资源@@
速率
管理者
牧
脑袋
先后
致辞
陶
筋
矿物
双边@@
国家发展
丙
直接@@
行者
钩
毒素
敏@@
缴@@
跃
亲密
传真
医师
全民
大使馆
托马斯
2004-2005
扭曲
小孩子
扯
艺@@
虑
恤
辩
预言
地产
拥@@
链@@
滩
导向
翅膀
内战
高管
一一
切割
阅
应有
学术@@
摩托车
政府机构
志愿人员
40.
令人满意
大致
娶
恒星
抽烟
决策者
排列
精心
流感
负面
64
定居点
税务
伐
GB/T@@
欲@@
行径
螺旋
番
酚
令@@
灯光
挂在
偿@@
聘用
气温
头痛
40%
溴
看见了
紧紧
辱
刷@@
境@@
外出
肾
试验研究
看作是
一辈子
处决
灵感
广泛@@
杰克逊
表达了
80%
催化剂
诱惑
金融市场
同上
数百万
触
扭@@
选中
不算
发展趋势
姐
庇护
崇拜
犯@@
企
前所未有
轻易
氨
买家
肾@@
寻@@
新产品
分割
天上
人手
做完
望远镜
帐@@
相对@@
简报
豪华
撤回
渗
途
传染
界限
简短
已@@
祖先
颈@@
首长
39.
战术
总体@@
谎言
仿
狭窄
莱@@
踏
处理器
姿态
小镇
债务人
钠
国防部
涂@@
介质
搜寻
商场
那时候
营业@@
专家们
元件
驰
割@@
倾斜
津@@
诱导
食品@@
1(@@
派出
财政部
海水
贯@@
og@@
微型
患@@
培育
措辞
价钱
站点
两国关系
不明
宜@@
建设@@
61
准时
标识
畅@@
希拉里
卡片
青年人
咪
补助
核实
学员
异议
签发
篮@@
外来
显而易见
格局
躲
外观
留下来
右边
烟草
保加利亚
齿轮
he@@
市中心
茜
41.
替换
章程
E/CN.@@
分别为
话语
摸@@
畅
好运
佳@@
粉丝
激活
社会服务
仓
男女平等
佛罗里达
平常
葬
览
重叠
ation@@
杆菌
分析@@
崛起
思想@@
披@@
造型
中亚
汞
巾
隐私
决定性
创始人
换句话说
高尔夫
呼吸@@
炭
主角
住所
猫@@
新疆
指向
流域
呈@@
欺诈
抑@@
平行
假日
神话
广播@@
愈@@
空军
就是说
原先
法则
竹@@
试点
P/@@
蔡
CC@@
堵
大麻
棕色
铭记
忘@@
敌@@
选票
ip@@
女友
恶心
超声
得分
停留
美国经济
优良
席@@
尾巴
抽象
目睹
听过
累积
中毒
产妇
电视机
温柔
分配给
薄膜
42.
搬到
起源
强壮
新兴市场
击中
骑士
洞@@
六@@
不同于
教导
黏@@
郊区
典@@
致力
庭@@
境外
身为
斯洛伐克
每人
地狱
表明了
尝@@
屈@@
蓬
京@@
en
杀手
捉@@
信赖
楚
许@@
以致
56
ii)
包围
弯@@
旗@@
演说
承包商
武力
凭借
屈
饱
殿
辅导
扭转
生日@@
驻地
总干事
大道
炼@@
紫色
㈡
处所
典
撒谎
热烈
榜
了不起
分泌
抱@@
沉积
高级@@
想念
凝
重要因素
见证
附属机构
理查德
IM@@
念@@
巡逻
不平衡
加油
外汇
蛋@@
国内@@
A.@@
全球@@
总经理
济
ah@@
加紧
糊@@
出国
劝
损@@
结构@@
艳
姚
滑雪
说谎
在意
十一月
平等@@
胆
队@@
握@@
终结
溶液
卖给
厂商
大学@@
旱@@
喻
堆@@
一点儿
唱片
在乎
非法@@
先进@@
ist@@
志@@
杯子
逃离
乍得
网址
领导者
和水
注视
增大
皇帝
虚假
北京@@
程序@@
物质@@
海啸
经贸@@
力求
分之一
㈠
清洁@@
定居
er)
低收入
判例
k)
比起
学费
广东
类似于
色情
单身
默认
老公
运动会
卖方
43.
二月
合作关系
日元
饼干
课堂
挨@@
趋
已知
电视节目
焊
承运人
汽
究
宽容
乌拉圭
切尔西
水面
狭@@
肩膀
详尽
感动
裸@@
反腐败
无线@@
详细@@
赢@@
纲领
复原
不肯
坐下
逃跑
友好合作
公民权利
借助
特使
解读
上个
俄国
家庭成员
愚@@
奶酪
最低@@
届时
痴@@
尚@@
国有企业
生殖
站起来
照明
拳
炒@@
渗@@
列举
小心@@
当地@@
行程
股权
art@@
卡塔尔
电站
海里
陷@@
献
停车场
里奇
些@@
反抗
最佳@@
芯
难度
惯@@
便于
娱乐@@
难民营
中央银行
乃至
自治区
必将
溢@@
出租
荣耀
赔偿@@
专利@@
国家机构
无视
民事@@
减免
叠
乐器
弱点
堪@@
无所@@
凌
身份证
军备
抵
孙@@
搜@@
弟@@
54
累@@
加沙地带
热点
濒@@
曼@@
特遣队
哭泣
旅行@@
法律援助
冲动
恰@@
见解
起初
丧@@
香烟
保卫
堪
到期
胳膊
44.
声誉
诈@@
诸
可信
小子
主要问题
斜@@
很低
雌@@
总监
受损
朴
防范
侠
法律制度
小时候
教材
走私
耦合
递给
卓越
历史性
拟@@
繁殖
计划生育
键盘
不结盟
串@@
循@@
州长
纹@@
谨@@
政局
q@@
业界
离职
陶@@
国民经济
倒在
极地
蜡
非常高兴
8-@@
搜查
早点
辉煌
琼
S-@@
遍@@
再生能源
偶@@
弟
陆地
苗@@
虎@@
2016
洗澡
爱德华
琪
延误
从此
留意
挫折
笑容
慎@@
遗
肿@@
执政
初始
半小时
转动
卢@@
A)
外汇@@
讯息
昆
不可思议
展出
拉姆
视图
钢铁
主教
暖@@
转化为
57/@@
以防止
极度
地球@@
收藏
词语
收音机
加密
国际标准
公顷
冰淇淋
晒
虾
大象
匹@@
摘@@
新娘
维多利亚
犯罪行为
过渡@@
傻瓜
公平@@
深远
for@@
估算
逛
间隔
审评
科研
痕迹
译文
鲍勃
红外
闻名
溶
舟
林肯
转交
按摩
送交
受教育
迈出
45.
交流@@
听听
挖@@
资讯科技
ik@@
干细胞
民间@@
墓
毛病
概率
奉
有关各方
尊@@
死后
直线
贯彻
动画
好象
ie@@
布鲁塞尔
战后
本法
益处
负面影响
丑闻
四处
达成一致
言语
而来的
林业
治愈
积分
预见
倒是
版@@
兑换
柔
演习
eb@@
记载
达成了
不成
糖果
半岛
大街
加深
全球环境
屑
争吵
一再
做饭
反对派
(2004)
12.@@
南京
善于
礼拜
衍@@
`
邀
外语
起点
58
全文
发酵
幻@@
99
柴油
交货
消化
送达
巴格达
既定
仙
其目的
呆@@
笨
申请@@
生计
通知书
督@@
证明书
高级官员
6-@@
山脉
人权@@
抱着
好在
伴随着
职权范围
BA
开口
资本@@
预料
砍@@
野生
维和行动
马达
口味
溜@@
一世纪
恐慌
雀
香蕉
骚扰
开发银行
北爱尔兰
量化
手套
杜@@
协调一致
定量
来访
零售@@
固体
象征@@
55/@@
仆人
逢
火车站
水分
泄
选择性
保护区
飓风
时常
洪@@
经纪人
货车
终端
祝愿
决策@@
渡
同期
多样
秒钟
垫@@
众议院
娃娃
海域
空气污染
二百
眼中
腔@@
盘子
总统@@
抬
厘米
原油
技术研究
祸@@
保养
模具
涡@@
仅@@
An@@
启用
淘@@
回合
机密
67
分组
铀
瓷@@
访@@
雾@@
意为
打扮
孕妇
去除
司@@
动用
大事
祷告
三明治
劣@@
骑@@
发电机
犯人
中等
人民政府
押@@
新增
次序
植物@@
限额
间谍
发展战略
领空
老爸
鹅
深切
吊
100@@
抛
多边@@
盟@@
远处
好转
盈馀
鸟类
捐
要不
助手
赞比亚
单个
工作量
星期日
都得
约翰逊
背叛
订购
几何
国政府
打扫
农民@@
有为
摆在
倾听
反思
ran@@
独立性
不通
分化
霸@@
结算
公共卫生
文学@@
眼光
幕@@
ia@@
58/@@
锅炉
马其顿
多重
自在
榜样
72
熟练
族人
悲惨
AS@@
厌恶
炉@@
长城
会费
生产商
下令
IP@@
九龙
毫@@
按揭
俱@@
环境问题
城市化
失误
生态@@
物料
各部门
投标
簿
驶@@
亚当
珠宝
差点
弃@@
伪造
血清
顶部
在外
繁忙
紧缩
司法部
国家元首
鲸
中和
孕
淘汰
过滤
祂
GDP
路口
打死
62
梭
巨头
发射@@
培训班
低估
加以@@
调查显示
掩盖
过敏
几@@
海盗
定制
66
棉花
除此之外
不合理
不记得
绳子
成形
棉@@
妇@@
拒
娃
抹
赛事
书写
犹豫
节能
椎
东北
税率
讲座
转到
46.
百姓
44@@
饮@@
审讯
傻@@
钦
植
250
努力工作
客厅
名词
美军
钓鱼
豹
对称
诚信
膝
以供
68@@
为之
流体
入学
天下
喔
创造力
厨师
消防
亲戚
警惕
哪怕
悉
情人
箭
没用
录音
疗
蜂
字段
亦@@
经贸
屁
宗教@@
要好
son@@
过高
上述@@
登记@@
核试验
绩
商会
圭
一生中
男友
螺
上方
以南
景象
孟@@
踩
侵蚀
沈
发作
细胞@@
邻近
抵押
董事长
贝克
僵局
中美
抵消
一整天
解放军
其他方面
贵族
民主@@
忌
放进
国别
阵线
辽@@
连同
奔
杀伤
点燃
制服
彻
ne@@
劣
多种@@
期刊
数码
姜
集装箱
萨姆
否决
塑@@
棒球
艰巨
景色
为使
腺@@
1986
休闲
流失
扰@@
47.
变异
地区@@
玻利维亚
生命@@
关系到
同学们
逸
舍@@
亏
色谱
业已
字符串
总署
烹饪
蜜蜂
合作组织
二是
崇高
悲@@
预警
祖父
ud@@
牛排
不懈
整整
漏洞
躁
定律
裁谈会
搭配
逆转
联邦@@
贪@@
非凡
跑到
登录
毕业@@
君@@
违约
93@@
休假
减缓
蜡烛
易地
演示
韧@@
醉@@
顽@@
希腊@@
试论
墙壁
遣
序@@
刑罚
装有
急需
第@@
社团
口语
劳动者
古怪
船员
恼
悟
锦
周边
姿势
中等@@
回国
均可
神经网络
卫生部
取向
问候
晚些
硬化
策@@
爱人
仗
庞
慈善@@
赏@@
尺度
嫉妒
CD@@
纪念@@
柳
启发
放入
淋巴@@
不一致
更正
挽救
上限
失效
镜@@
57
勇@@
国务卿
AP@@
果实
销量
蔽
外商
苏珊
外科
贯
强调指出
盖茨
饲料
接管
迫切
喀麦隆
坦克
览@@
凡@@
川@@
有望
分列
半数
什@@
一带
夏威夷
身后
特许
缓和
同胞
土豆
梯@@
争夺
防守
天生
纷@@
光纤
棍
握
针对性
更长
2002-2003
生态环境
窄
信息化
怪物
营养不良
从小
无比
未成年人
实物
48.
90%
两岸
济@@
磁场
关键@@
弥@@
不可或缺
立法@@
打断
成对
所在地
莫桑比克
访问@@
撰写
港元
核能
民主主义
关押
西北
筹集
据此
直径
屏@@
书店
许多@@
弧
百分点
迫
夜里
身材
CT
11.@@
喜悦
防护
掷
航天
阴谋
诉讼@@
完全不同
炒
草稿
ib@@
勘探
高等
塑
尼加拉瓜
放置
粗糙
冰岛
没办法
备份
蓄
密集
理智
突变
优美
常务
凉@@
90@@
轰炸
焊@@
者们
董
相连
1987
警察局
知情
影子
最长
漫画
祖母
先生们
序言
赌博
房产
馆@@
巫@@
拿起
叶片
利物浦
包容
干活
无知
裂缝
经济活动
会计师
中立
67@@
当成
中央政府
借贷
手工
崔
最大限度
捕鱼
质量@@
载体
浓缩
任何地方
浅谈
涛
禁毒
泊
避开
跃@@
全国各地
用地
祖@@
烘@@
侯
谋@@
常规武器
生殖@@
零售商
入到
数字@@
星系
变迁
日记
无情
电气
别墅
练@@
主管@@
爷
各项@@
乃
法人
跟随
专辑
滞
ex@@
判定
奶油
放大
电极
萨尔瓦多
凤
南南合作
快要
夕
狗@@
升值
楼上
AT@@
ing
抗体
核定
扰
购置
上校
不定
仅为
咬@@
充当
切断
妥善
摩根
浓
电视剧
愧
不论是
全国人大
不容@@
参考@@
陌生
咨询服务
丑
份@@
人质
野生动物
&quot;
天性
查找
战争@@
氛围
递交
铝@@
获益
毁坏
磷@@
侮辱
63
县@@
E/@@
侧重于
托尼
中东@@
北京市
勃勃
综合征
49.
容纳
寿
有关规定
首要@@
更为@@
兴起
翁
团伙
塘
开拓
血压
U
抑郁
霞
女士们
测试@@
源自
1/2@@
廉@@
询
氢@@
讽刺
招待会
C)
谐@@
粘
寓@@
大幅
瓶子
冷战
简介
泪
营运
无条件
全年
负载
贩
幼儿园
纳税人
贡
域@@
罢了
回避
远程@@
沙拉
克拉克
共振
马路
公司@@
小偷
曼谷
民警
赞美
公共服务
调制
亲和
实际情况
铭
平安
老实
龟
实施@@
歇@@
西方国家
任何@@
回头
信托
叉@@
qu@@
盆地
定时
1373(2001)
亏损
急剧@@
海峡
生产率
压迫
毛泽东
59
国际经济
塞族
征服
后期
再加上
筑
蝴蝶
沙滩
行政部门
阅@@
以色列人
穷国
韩@@
胡子
A/60/@@
戈尔
壁垒
屠杀
气管
车祸
拐
柔软
整个世界
制剂
玩耍
煽动
俯@@
I/@@
孟
微小
ce@@
干吗
翼@@
高血压
祸
冻@@
车队
救援@@
四川
静态
/CO@@
个子
教育部
字典
毛里求斯
发性
各个@@
副总统
扩
重要问题
PL@@
饮
co@@
经营者
爱好者
美食
出版@@
勘@@
抹@@
爆炸@@
臣
伊丽莎白
词典
家务
椎@@
70%
兑现
吸附
探测器
基督徒
一来
起码
人间
倾
邮政
浦
新建
避
重庆
装饰@@
网路
危及
中小型
前者
昏
作证
法制
马德里
国际关系
鑑
悦
归还
综合性
贩@@
定期@@
陪审团
职权
脊
艰@@
棚
真好
警报
巴拿马
检控
仍@@
工作经验
坚实
汗@@
出示
水质
est@@
if@@
并发症
198@@
长者
问责
AR@@
举止
数以@@
早日
会员卡
预备
此间
只不过
曾@@
游览
各国@@
增添
潮湿
绘
青春
面部
履@@
绘制
I)
60%
天津
锚
南省
赶快
酸盐
无害
排序
想不到
杭州
事务所
简历
腾@@
侧@@
月中
痒
不易
不许
旅费
所处
历程
实验结果
宁静
死在
街区
研究员
走去
征求
PR@@
半导体
脏@@
其他@@
谈判@@
'@@
发音
呼叫
流行病
笼@@
占用
地里
地质@@
垒
向导
收拾
泳@@
筹备工作
5%,
亲属
葬礼
己@@
户外
磁盘
不信
天主教
作法
养老金
吸血鬼
慈@@
扑
社会组织
肢@@
庙
浏览器
乞@@
赏
日本人
直觉
有效率
限期
示威
佛教
无可@@
近代
街@@
货运
疫
终了
极为重要
锁定
付费
摔
市政局
一致认为
平板
舱@@
阿曼
来过
一般来说
陛下
怡
宾@@
玩笑
升至
住宿
与否
监管@@
打印机
章节
褐色
先决条件
1985
袖@@
妇人
上半年
铅笔
合法@@
56/@@
水下
绝不会
脆弱性
海伦
罪名
人造
托人
76
900
eg@@
戴维
宴
演化
柜台
精神病
件@@
ID@@
穴
晃
陪@@
罪恶
年龄@@
住院
尼奥
50.
判处
爸@@
原材料
推销
知名@@
登上
衬
魔鬼
五百
仍旧
审视
改良
旺@@
事后
眼里
穆@@
代表了
结构性
留言
用语
跟进
慈善
健康状况
住房@@
CR@@
团长
销售额
2008-2009
纽@@
绝不
账单
印刷@@
凌晨
让步
人称
奴
感知
气球
赌
阿尔@@
与会
钾
不已
卸
控告
型号
95
福音
意料
每一次
化石
凤@@
预算案
经济衰退
袋子
兄
全国人民
发挥着
宣传@@
本能
切除
恶意
不予
无家可归
竖@@
国际机构
预算外
价格@@
68
厚度
巨额
厌倦
日程
淑
副总理
症@@
奠@@
中心@@
反应堆
营造
州市
平稳
坐下来
进球
宽松
锥
不堪
化工
染@@
忙着
坊
何处
博弈
聚合物
自由贸易
担@@
路面
不管怎样
轻轻
宪@@
扁
未决
逝
尤为
概括
肆@@
中间@@
寂寞
做好准备
85
数字化
同类
成因
艺术品
西蒙
求助
醛
信用证
虐
解散
唯@@
意向
搏
芭
预报
哀@@
挺@@
不顾
外科@@
汇款
者@@
重力
伟@@
晨
民用
泄漏
不等
郁@@
彻@@
色素
被动
传来
反弹
桂
Q
减弱
昨天晚上
木头
意味
拆除
意识形态
还原
一次性
公营
海边
行政管理
闪烁
恶魔
指导@@
笨@@
华人
邓小平
伊斯兰教
破碎
工作时间
剧本
猪@@
嘴唇
生殖健康
效能
出境
改动
燃油
15%
经济危机
区域经济
岗
Ma@@
预防性
付诸
净化
鼠标
拉美
区域@@
锦标赛
养护
精密
涂料
畜@@
货币@@
世界和平
暖和
梳@@
比特
炸药
A/59/@@
海牙
西斯
小区
仓@@
大豆
统一@@
赔偿责任
低温
水量
公安@@
偏离
共计
业务@@
氧气
誉
情愿
预防措施
/C/@@
公屋
创造@@
A:
万年
商学院
来信
高速@@
未知
临床@@
李鹏
延期
掌控
取出
采矿
饱和
98
all@@
舆论
鲨鱼
礼品
ess@@
普遍性
悉尼
可笑
吵@@
好友
论证
英国@@
乐园
冷冻
计算@@
名声
搜索引擎
泄@@
况@@
择@@
马车
出名
帆
找了
敢@@
工业发展
鲜花
市政
蜜@@
51.
大纲
里程碑
镇上
过剩
处以
平原
经济社会
完毕
新鲜@@
肯尼迪
量子
喜剧
来源于
缠@@
盟友
电报
九@@
志愿
拍照
60/@@
电信@@
配方
习近平
夫@@
担
琴@@
3(@@
交互
郁
魏
着陆
碱@@
婴
仑
模特
髓
商务@@
正在为
环保@@
伴随
慕@@
搜集
补救办法
避难
9-@@
堕胎
狱
向下
北极
忙碌
聘请
收养
绞@@
厂家
夸@@
纤维@@
资深
搞定
捡
破坏性
鸿
墙@@
全国性
受害
推测
颇@@
断裂
吸毒
码@@
知本
亡@@
开辟
中美洲
尊
胞
实践@@
爆炸物
镀@@
土著民族
大不列颠
岁月
革新
风险管理
航线
有所增加
皱
电厂
磨损
解析
浩@@
挣扎
怨@@
煤矿
降解
al
驳回
指纹
指派
栅
颅
受不了
法律程序
上大学
荧光
飞行@@
uc@@
受到影响
娘@@
支架
25%
总的来说
贷款@@
狂热
学业
报警
溜
评审
电磁
笔者
霉素
ber@@
友@@
蟹
悠@@
输送
关怀
山顶
慕
弊
净额
油漆
52.
悔
不知@@
住户
应变
动摇
布莱尔
各界
溢
卖掉
未必
出版社
界线
树枝
C-@@
推理
征税
中央@@
哈佛
据悉
沥青
染色体
现金@@
半球
恐龙
关键作用
人民法院
引人注目
54@@
男士
立陶宛
络
身心
警卫
称呼
润@@
路边
遗忘
复合材料
Facebook
团结@@
灌
发展计划
或者说
枢@@
吉他
同伴
景点
比重
水道
礼服
技术上
红十字
笔记
芝
外空
退休金
A/55/@@
持续@@
孤儿
aw@@
予@@
蚂蚁
apos;@@
不怕
雅虎
忽然
辅助@@
鸡肉
大会主席
病变
遭@@
镍
院子
萧条
奉献
招呼
坦率
懒
sh@@
公爵
颠
纳米比亚
锋@@
代表大会
油田
海湾
难得
嗓@@
剧烈
赐
手术@@
配额
概述了
调度
迎来
殖民化
代表@@
SR.@@
谜
法国@@
黑山
咳嗽
装配
之处
穆罕默德
萝
附带
高潮
幸存者
政客
暂行
如果说
缺失
中东和平
弓
指挥@@
文物
捕获
树叶
ew@@
梨
不能够
皮特
售价
顶级
渴
两国@@
波黑
靠@@
老化
横向
纺织品
亚特兰大
翔
一时间
撑
具体@@
公交车
带动
持有人
发展权
骗子
咽
批判
深受
简称
评价@@
恐
解答
翅
完整性
鸟@@
斥
潮@@
国旗
功夫
彼
猩猩
火山@@
开幕式
截
病情
体面
泛@@
漫
客户端
羽毛
www.@@
怀特
规管
逻@@
有关方面
棘手
歧视性
小伙子
良心
地形
53.
英国政府
误导
A/57/@@
永久性
叹@@
蒙特利尔
大火
扭
阻力
西方@@
会同
如何处理
酪
精简
雨水
裕
勿
机组
相符
神经元
那一天
若要
坦白
大衣
共和
监护
生活水平
离去
美金
狮
萎缩
买下
嫌疑人
暑假
忍
货品
ant@@
混合物
恐吓
激进
itt@@
记录@@
种群
浇@@
中药
出差
存活
贝宁
减低
段落
趣@@
Ab@@
物理学
金色
发型
黑客
1500
感应
探究
日历
站着
自私
颊
猜@@
去哪儿
抗生素
省份
汤@@
公众@@
学历
登陆
备用
夺
里德
副作用
革命@@
A/CN.9/@@
经验教训
寺
老挝
详
巴林
辅
喧@@
化妆品
3,@@
摄像机
无意
令人鼓舞
沸@@
弹簧
宽度
有序
熔
停下
结晶
达成共识
做爱
万一
13.@@
保人
批评@@
春节
专业人士
白痴
估价
必要措施
竭
堡@@
核武器区
亦可
中国大陆
大公司
新生儿
知识@@
吸入
B.@@
严重影响
缺席
22@@
合伙人
措
发觉
4000
检察@@
癌@@
胸部
纸张
陷入@@
摄影@@
54.
国际市场
接种
坐标
姬
刑事@@
莱尔
69
福祉
圆桌会议
避孕@@
环绕
人居署
持久和平
不和
剥@@
森林@@
自治@@
认捐
per@@
遵从
术@@
正要
科斯
丽莎
羽
香味
合作社
阻塞
施工@@
使用武力
调查局
补助金
主导@@
膝盖
华丽
饭后
联合声明
狠
始@@
化为
照相机
电阻
充电
拿来
耽@@
14.@@
悠久
评注
屋@@
雕
答道
理事
示例
拾@@
拘捕
机能
59/@@
安南
贤
陪伴
概要
酿@@
分裂@@
尽头
山谷
经济效益
招标
视力
静静
敦@@
映射
原子@@
场面
猛烈
党员
口号
转换@@
成品
栏@@
溶剂
脂肪@@
贺@@
照会
开罗
草地
A/C.3/@@
夸
高原
安全部队
撞击
陷阱
开端
战役
不锈钢
但愿
上司
排队
接地
冥@@
高职
与众不同
歌唱
醋
嫩
师们
老兄
建筑师
1982
合同@@
现任
卷入
终身
坠@@
母语
不利于
曹
东欧
灿烂
僚
饱@@
岛@@
维和@@
报名
捕捉
外勤
科学研究
警务
村民
脚步
财政年度
戴上
证词
微妙
子宫
项@@
越过
库@@
石油公司
翠
调试
羡慕
战场
众人
台北
经销商
驾驶@@
小册子
惊
le
诚意
可乐
定性
开头
绑@@
选用
香港人
密切相关
债务@@
弄得
快递
缩减
外交政策
侵入
欢
高出
免除
哭@@
车间
塑料@@
详@@
茂
菊
献给
扣除
施政
最后@@
核心@@
以求
亲切
沾@@
三星
勉强
电影院
富人
泄露
巴尔
打交道
募@@
增设
邮局
住宅@@
有史以来
锈
加班
赶到
懒@@
E/200@@
盲@@
蜜
国有@@
添
分配@@
盾
腻
优先@@
填充
医疗保险
赠款
审批
A/C.1/@@
国际化
植入
泻
10-@@
凸
区域性
现阶段
送往
触发
富有@@
队友
面板
杖
祭@@
期货
顿@@
燕@@
互相@@
巨人
中介
并购
本质上
二级
喉
草原
人身@@
青蛙
分娩
动词
高峰
中产阶级
55.
则@@
村子
栓
夸张
胀
餐桌
债权
多是
建构
降落
扩大到
ff@@
充实
中国市场
用力
裸
+@@
删去
引力
哨
感染@@
时代@@
兼职
盼望
é
门外
客房
赛车
椭@@
抚养
酷@@
公布了
草拟
亭
肽
染色
quot;?
统计局
开创
替@@
96
淀粉
优惠@@
宣告
捷@@
增幅
往前
拉克
水管
祭
观光
联系@@
享用
基石
大战
美学
IS
欧洲国家
安定
掩@@
做生意
地盘
规矩
愤@@
途@@
一下子
特质
互利
荫
教皇
游泳池
光滑
陪同
块@@
狐狸
代表着
尖叫
商讨
醚
伪
乏
表达式
学年
昆@@
罗斯@@
花朵
丰富@@
烫
绅士
)(
凑
胎儿
运算
映@@
本地区
解决方法
铸
地下水
外包
胚胎
保障@@
迭
饮用水
残疾@@
令人遗憾
疏
大桥
渐
班机
驾
一共
所得税
纽约市
迅速@@
天真
旅@@
传奇
那个@@
午
气象
轮廓
吻合
宗教信仰
致电
枪支
水库
出任
纵
镇压
上演
山羊
海运
隔壁
鸦
优先考虑
经受
惧@@
档@@
乖
凹@@
废水
束缚
56.
不高
扁@@
新世纪
遣@@
Mic@@
狼@@
国防部长
颜
疲@@
居民@@
谭
信用@@
加工@@
规范@@
ind@@
岗@@
通风
认真@@
凡是
廊
转变为
乐于
国界
贪婪
感到高兴
旦@@
阀门
嚼
独立@@
野蛮
焚@@
润滑@@
津
精灵
几率
追究
凯@@
会议@@
名誉
国际法律
火器
牛仔裤
参加者
民航
%;
柜@@
日常@@
看一看
眼神
及格
忆@@
揭露
猪肉
摄影师
奇妙
时装
鉴@@
面具
应和
有所不同
民族主义
深表
准备工作
加强合作
器件
重申了
难受
客气
对外@@
打赌
帐篷
想来
抬@@
契@@
西欧
坡@@
存放
枝@@
麻醉@@
孢@@
十字@@
宽恕
一连串
大片
相比之下
赎@@
反过来
同盟
被告知
释@@
务实
扣押
接收@@
为由
坏事
滥@@
电网
并行
海事
爵
老朋友
180
观者
购买@@
项链
恒@@
瘦@@
清晨
ar
西雅图
资产@@
午夜
鸟儿
名册
88
B:
监管机构
以便@@
导游
成本@@
罐@@
诡@@
行列
专题@@
联网
十足
承担责任
显微镜
付钱
暴风雨
锯
限制了
南海
看似
组装
D-@@
果汁
特区政府
荒谬
誉@@
商界
想象力
BC
http://www.@@
怎样才能
用尽
Inter@@
前方
现今
优先权
婴@@
看书
分布式
加重
完全@@
胜任
任何情况
紧张局势
辅@@
扼@@
羊毛
基金@@
愁
熬
隐瞒
贺
以为@@
审慎
体现在
不小心
共产主义
南亚
57.
共处
转达
1984
A/56/@@
进出
微波
旗下
保管
轨迹
秀@@
评定
医学@@
苏丹政府
变性
宇航员
陆军
睡在
鉴别
贿赂
胖@@
问到
新闻界
疗@@
鞭@@
搭档
郊@@
友善
原型
瞄准
se@@
严格@@
弱势
排在
融化
走开
以防
正确@@
网友
伸出
�
刚好
压制
吸取
召
爱沙尼亚
研究成果
(2000)
倘若
退休@@
动手
笛
薄弱
帝@@
大宗
生存@@
即是
甜蜜
风筝
A/58/@@
受访
接头
蜘蛛
躺@@
这次@@
从一开始
国际机场
笨蛋
地表
玻
立体
领带
全系统
晕@@
91@@
各国人民
当做
通话
轧@@
预示
极其重要
举起
贵方
慰@@
峡谷
棕@@
染料
盈@@
o)
科目
㈢
似@@
班级
蠢@@
广义
控制权
提供者
肉体
铬
关掉
劫
境地
秦
亏@@
想办法
砍
小鸟
生就
犹如
镁
驱动器
言论自由
休息@@
E/CN.4/200@@
军火
听力
剑桥
(1)
1.??
主管部门
表述
桥@@
告别
袜子
评级
赫@@
34@@
国防军
反对@@
喊@@
宏观
对立
蕴@@
拉脱维亚
借款
手下
肺炎
文件@@
圆满@@
增值
主机
钢笔
乐团
学术界
车道
浅析
若干@@
唇
常任理事
本次会议
身体健康
平地
ack@@
灰尘
责备
过早
辜@@
2,
较长
亚洲国家
百度
海报
青年@@
纽约@@
各州
晒@@
雕像
肆
以便使
妇女问题
双胞胎
乳腺癌
大会堂
必定
亚历山大
太空@@
颁@@
古典
DA@@
银行家
奠定了
电线
功课
申明
脊髓
雕刻
聆听
人文
大雨
麻醉
创办
察觉
法国人
阶@@
130
78
出路
表现@@
龄@@
皮革
柠檬
勋@@
国债
适度
仆
体育运动
句@@
副部长
南部非洲
字体
报告书
1970
善意
霉
美分
58.
信徒
行过
医疗保健
逾@@
手枪
锤
生产者
会长
安德鲁
巫
注册@@
瀑布
Ar@@
五千
附加@@
没有@@
鹏
抑
中英
诱
74
彼@@
配套
我们国家
找工作
捕捞
概况
集中@@
成都
漆@@
赋
92
马耳他
桌面
估值
限度
颠@@
核对
崭新
爱因斯坦
生活质量
教科书
电讯
研究工作
花园里
广东省
奥委会
牢固
Sch@@
大屠杀
偶像
下属
切换
气息
凌@@
技术性
中国企业
曼哈顿
常委会
惩@@
叙
施政报告
导师
SO@@
斯顿
款式
云南
闸
侍@@
思想政治
黄金@@
会计准则
73
具体情况
砖@@
2020
应根据
不曾
贝利
尊重人权
曝光
费率
加载
挑战性
新和
民法
高等@@
特工
高档
多谢
面孔
主观
坏消息
陵
棍@@
灌木
第三@@
核查@@
香水
A/C.5/@@
所有者
显示器
热门
纲
身分
发生变化
生物技术
议席
亩
潜
W
绝缘
通向
匆匆
铁路@@
方可
访华
公共交通
挽@@
矿业
长向
亟@@
奥斯卡
对话框
伪@@
有利@@
生化
89
率领
总局
驱逐@@
变压器
晋升
板块
看好
锥@@
洁净
崇@@
误会
int@@
维修@@
71
Le@@
提供@@
澳@@
较强
涂层
循
智能@@
肮脏
克制
苷
蒙特雷
刘@@
椒
睁@@
同样重要
哈哈
罗伊
奉行
自适应
侵略@@
交际
谷物
救灾
长期@@
车库
鲜明
滤@@
脚本
注射@@
用户@@
用法
篮子
110
锁@@
聚合
非洲大陆
卢森堡
国家政府
谷@@
赤
S)
霍@@
水晶
生产线
语句
Web
附录
举报
先知
59.
切实可行
截止
妄@@
危险@@
湿地
耀@@
el
解放@@
(1999)
辊
驾车
蠢
胎@@
此地
舌头
牲畜
归咎
徽
遵@@
硅@@
凶
学说
搁
淋
草坪
不分
箭@@
辣椒
黎@@
普通@@
能够@@
进行@@
放射
猴
不足@@
潜能
转型期
谱@@
徽@@
培养@@
迫害
震动
高昂
口气
水源
腹部
长江
197@@
动地
哲
烃
黄油
Corr.@@
一侧
生育@@
项目@@
全家
双边关系
蚊子
不难
人工@@
孩@@
双重@@
发病率
弃权
赋@@
速器
届满
理会
遗留
参阅
喂养
冶@@
活性@@
复活
婚姻@@
平方
遵照
材@@
思维@@
液压
收支
瞧@@
二者
身高
1979
浩
索取
中医
胰岛素
不便
渐进
茫
大为
遍布
难忘
毛巾
定型
旨
参见
阿拉法特
煎@@
物价
寸
拖欠
精美
不人道
任何形式
议定
问及
中国特色
票价
窃
泉@@
灌溉
贫
疯子
等同
计划@@
涵
期中
秋季
身份@@
碑
世人
亚太地区
列在
自主@@
获准
敬意
的士
可取
渠
IP
会前
极为@@
认出
0-@@
ry@@
留学
独一无二
丹@@
大众@@
睦@@
若是
迈阿密
治疗方法
够@@
成立于
叛乱
NF.@@
着急
裁军@@
土地利用
削@@
这么@@
挂钩
生来
金字塔
贷@@
亲吻
压缩@@
明确规定
水稻
右手
邮
1967
服饰
83
卫队
来回
淡水
偷偷
糊
放宽
波多黎各
82
日语
本科
联络@@
核算
私有化
兼顾
大家庭
堵塞
储备@@
PC@@
市镇
时髦
侵害妇女
获利
可观
驾驶员
主要目的
激起
那段
出生在
IC@@
一家人
面粉
毛衣
旗帜
巧妙
终将
哥本哈根
一揽子
措词
片段
描写
精致
嵌
各有
看作
15.@@
暴行
表现为
刑事诉讼
战时
难民事务
器材
慰
短短
son
囚@@
上衣
杀人@@
手动
期权
草莓
学习@@
校正
骸
60.
惯
竭尽全力
F-@@
嘴巴
弱势群体
零部件
尤@@
混淆
总体上
WP.@@
出自
台阶
实现@@
救生@@
私立
逃脱
相遇
工商
威尔士
眼下
缴款
亲人
广播公司
威士忌
轮机
渍
首位
不可分割
柴@@
The@@
会后
疮
问卷
我们俩
湖泊
动脉@@
玩游戏
有关问题
万富翁
吃掉
三方
他家
空运
忙@@
瓶@@
87
战略性
基因组
莓
运河
97
驴
实务
挣
去年同期
研究院
改组
叫声
追溯到
面条
旦
有关机构
新一轮
专长
雕塑
显示@@
信函
到位
车厢
锦@@
夹克
毋@@
坚持@@
泊@@
议长
曼联
招待
运营商
探析
本年
相等
En@@
方形
终点
被占领土
中国传统
视线
四方
计算方法
处方
重重
绒@@
16.@@
产值
协同@@
怨
三角洲
沿岸
潜艇
iz@@
对比@@
自决
诺言
资金@@
中世纪
收据
茶叶
小于
城乡
世纪@@
伙@@
民政事务
饲养
中华民族
承办
消毒
先例
时空
掩饰
球赛
经理@@
一贯@@
积极作用
管理工作
D.
磁带
兰克@@
客观@@
早饭
飘
古典@@
大力@@
苹果公司
钞票
热水
西南
试用
强制执行
票据
齿@@
指甲
两国人民
仪@@
珍珠
衰
境况
氧化物
各种问题
就职
郑@@
准确性
分辨率
勤奋
综@@
创业@@
追逐
高大
ph@@
t)
颂
坚固
就连
高端
流向
日本政府
不久前
时钟
共和党人
用处
窗外
61.
长长
臭氧
案情
敏感性
转身
个性化
86
丝毫
脂@@
人才@@
外交官
猎人
玛@@
悲痛
蒸发
春季
洞穴
一回事
张力
绿色@@
堤
缉@@
阳性
决不
小事
肌肤
醒@@
霸
自愿捐款
临近
宏@@
抚
费城
恶性@@
效用
极端主义
消极@@
不支持
入住
耍
芙
热器
美术@@
烹@@
屈服
检测@@
福利@@
卖出
森@@
肤色
奖项
乏@@
全权
撤
强硬
IN@@
得来
SP@@
低下
氯化
脚下
预期@@
债@@
播出
泪@@
光芒
暴雨
缪
恐@@
读取
瑞士@@
临界
铃@@
整个@@
迈@@
上千
产地
宅
绣
悲哀
吩咐
欧文
女神
橱
检查@@
巷
税务@@
咨
恭@@
侦查
任用
当日
歪@@
终会
成型
煮@@
畸形
零点
手提@@
肝脏
姿
有无
海豚
oh@@
舰@@
诅咒
疚
数学@@
北韩
抵押贷款
缔约
钢铁@@
关键技术
其结果
匿名
强行
妓女
会期
吵架
洋葱
生动
堵@@
解开
执法@@
作风
筹
美术
到时
惹@@
私下
概
法郎
伯爵
泪水
驯@@
佬
Th@@
互助
桑@@
宠@@
摄入
袍
A/62/@@
带回
支付@@
斜坡
胜过
伪装
感恩节
庸@@
62.
甚至还
转基因
工作室
诺贝尔
160
肘
工人们
会话
地铁@@
路易
辰
保守@@
培训@@
Gr@@
人权状况
发生@@
哲学家
爱心
牵涉
ad
客户@@
美国国家
资本市场
转为
而言之
没有用
钝
戴尔
高地
190@@
在职
经济政策
份子
发烧
筛
儿童@@
盆@@
早期@@
运行@@
音频
暴力@@
迅@@
除去
p)
斐
呈现出
小儿
过往
w
提高到
牌子
胁迫
过头
主管当局
存储@@
应急@@
恼@@
拱@@
稳固
长将
峰@@
本性
棋@@
御@@
信封
拼写
将就
弊@@
内向
切除术
飞越
美国国会
市场准入
1949
低迷
点头
另一方
3,
欢呼
短语
组织结构
音乐家
游说
答辩
溅
放出
定下
咯
高新技术
收益率
海外@@
被害人
邮箱
极端@@
挪@@
民族和解
结尾
外贸
巴赫
蜂蜜
dd@@
有点儿
条纹
呵@@
均为
热带@@
赤道
光盘
陵@@
遗嘱
历来
杰@@
酿
肴
印第安
边上
佣金
现存
科技咨询
车票
~
股票市场
表征
加剧了
圣诞@@
DS@@
当地人
多彩
钓
81
力气
管理部门
Rev.@@
野餐
地步
虚弱
消化@@
偿付
乒乓球
同事们
免遭
桂@@
全局
全球金融
煤气
过失
家用
灾难性
股票@@
舰队
上映
交换@@
患上
昧
烟雾
1)(@@
乏味
修饰
黑暗中
武汉
酰
骨骼
科研@@
财务报告
麦当劳
Re@@
脆
趁
吞
留学生
薪资
触摸
中风
到时候
备受
新一代
累计
end@@
中国队
漠@@
直播
es)
禽流感
民主化
帐目
污染@@
仇@@
ER@@
the@@
协调会
调解@@
不得@@
念头
抖
集群
海岸@@
工作日
晋@@
流血
93
性别歧视
PC
倒闭
天体
审美
税款
粗鲁
农药
忽略了
充分发挥
后裔
洗手间
限定
背上
行将
英语教学
傲慢
太阳@@
媚
畜
茄
A/61/@@
ug@@
下降到
随即
根除
闪电
哀悼
盎@@
鸭子
140
PS
观察@@
谣言
79
殴打
忽@@
缘故
萍
跑道
劲@@
心理学家
重要内容
公会
在此期间
有效期
贩毒
严重性
农夫
毁掉
地下室
饮食@@
崇
新人
爪
帅@@
昨@@
病理
海洋环境
筹备@@
肃@@
破产@@
蒸
小学生
籍@@
瘫痪
免税
笑声
不法行为
塌@@
人大
搅@@
数个
谈及
oun@@
抬头
门前
屠@@
相称
南极
重大进展
游击@@
狗狗
置疑
斐济
粉红色
侦探
妙@@
活泼
传给
惟一
锐@@
反对党
快捷
明天早上
波罗
美德
%.
信任措施
局限于
安东尼
足球@@
跳跃
淀
团聚
菲利普
顶端
17.@@
连续性
向量
立方@@
钉@@
匆忙
国民议会
邦@@
口音
63.
约瑟夫
聚在
功效
流传
购物中心
阿姨
光临
触到
废料
当下
定理
1981
审查@@
真菌
Com@@
冰川
也好
全力支持
简洁
重新考虑
窦
铅@@
海滨
交通事故
房屋@@
楼下
A/C.2/@@
农作物
抑郁症
换言之
Car@@
侄@@
厨
躲在
1978
听从
84
忠实
薪@@
下一代
偷走
偏差
分工
中旬
扶持
语义
红十字会
凿
每一位
身子
上升到
救护车
蝶
咒@@
碍@@
位子
窗帘
截止@@
双向
听证会
杠杆
潜水
统治者
阿拉伯语
整数
流出
郊
敏捷
掘@@
前线
存储器
拥护
流产
铸造
天花板
逛@@
曾有
次要
炎热
猜想
疾@@
做为
土著@@
调节@@
握手
文化遗产
只要有
对外贸易
很多@@
理论研究
美容
出卖
柏@@
宰
运作@@
人文@@
仪表
落到
物权
关乎
贵国
友好关系
渔
ok@@
查表
流利
计时
钢筋
增速
投降
利害
ed
怀念
防卫
店铺
上传
0.0@@
嘉@@
综合症
纤@@
过滤器
过量
以减少
说不定
卫星@@
圣诞老人
经济复苏
养殖
唑
推移
明日
2/2@@
纵向
身处
本在
ama@@
依法@@
写出
稀
宽带
肉类
匙
断层
出席会议
城市规划
引领
沃尔特
理财
情人节
茄@@
粉碎
苍白
62/@@
安全部门
旅行社
IT
作文
Am@@
从业@@
无权
活动@@
适合于
两边
制度@@
年份
微观
66@@
榜@@
做梦
喉咙
随身
修补
单是
奇特
合理@@
无形
牙医
血统
太长
庭上
热线
0)
开列
外壳
普通人
瓜@@
整洁
碧
附有
寿@@
甄@@
范例
发明@@
有效措施
魁@@
产能
备有
装运
大米
糊涂
反叛
暂
64.
略有
西班牙语
4,@@
钛
坏人
生活条件
不变
哪个@@
宗@@
平凡
近年
正直
id
内政部
原告
94
erv@@
61/@@
两地
好些
知觉
移动@@
各位@@
重于
91
废弃
录取
燃料@@
们@@
毅
A/C.@@
关门
车轮
被告人
af@@
ric@@
熄@@
生为
ml
凝胶
塑性
培训课程
嫌@@
订阅
中型
冷却@@
期货@@
某些人
注释
项目管理
纠@@
扩充
看望
丰田
抄@@
着眼于
通告
为人@@
传动
公元前
衰竭
迷路
增长速度
未曾
逗留
会议议程
品味
长于
括号
趋向
最低工资
缠
国土
中性
超级@@
Ad@@
坦@@
淹没
性骚扰
丛林
后卫
标准@@
澡
梗
用心
自助
闭嘴
病学
酬
均应
踪@@
天地
辖@@
长着
前列@@
辑
乃是
反驳
于此
出入
土著人
驳@@
喘
公用
屎
往常
童工
迦
18.@@
一端
不一
卫生保健
海湾@@
适应性
专业知识
归功于
极好
泽@@
Sp@@
儒@@
巿
袜
陕@@
体操
作好
哥们
竭力
衣物
例行
惑
电动机
普查
橄榄@@
北极@@
大夫
大气层
渔船
缺口
纱@@
供应@@
出身
发行@@
西安
高等法院
鸦@@
一国两制
医学院
哺乳动物
O_@@
显现
眉
种族灭绝
精子
起因
局限性
拆卸
ass@@
上车
暴力事件
此案
作对
全额
尚未@@
青睐
96@@
体育馆
分级
家居
总务
洽
古巴@@
ash@@
不禁
竞争者
哈佛大学
扮
))
初中
相爱
ort@@
不理
以内
市政@@
中东地区
低成本
实证研究
激进@@
租用
就已
iPhone
杉
爬上
保护环境
害羞
泥土
奇异
疑虑
放大器
装上
责任感
饮用
宣传活动
外在
复习
畏
辩护@@
不动产
弧@@
Con@@
芭@@
国家队
2%,
崩@@
康乐
∶
ational@@
城区
忧
胰@@
停火@@
1.5
e,
暗杀
位移
论及
奥斯@@
狠@@
袋@@
遂
滑稽
自然界
辈子
压抑
双眼
庄@@
科学院
减速
分析人士
奴役
妊娠
报告@@
烂@@
is
朽
XX@@
ct@@
携手
敌对
本案
查出
审判@@
新闻中心
死人
高尚
诠释
以便为
募
战斗机
极具
一口气
歌剧
洪都拉斯
it
高层@@
编辑@@
肺癌
安宁
悔@@
拼命
图标
溶解
雄心@@
停滞
椰@@
用餐
支持@@
躲避
洁@@
增长@@
J
仁慈
搁置
生产能力
遗弃
挤压
连锁@@
ust@@
愤
贴在
以至
自行@@
礼仪
运费
粉末
出手
印象深刻
残留
殖民
出错
物价@@
ia
移到
自觉
今早
目击者
胜地
持久性
访谈
肥皂
勇士
动植物
卑
空前
确认了
血糖
跟上
誓
魔术
纪念品
阻挡
上海@@
包容性
乡下
应得
必要条件
叔
官员们
摄像头
涌入
滤波器
收容
珊瑚
(2005)
居室
斌
失控
间隙
晚宴
游戏@@
税收@@
缀
男孩子
甲板
均等
丹佛
客们
手势
怀着
放开
SB@@
发掘
国情
1%,
(2006)
召唤
盏
仲
小提琴
上诉法院
高效率
大部分人
业内
典范
养成
票房
(a)
事例
奢@@
娟
SE@@
三国
指示@@
百货@@
裁员
法律问题
看不出
阳台
图画
安盟
A/AC.10@@
理应
受益于
桨
器具
董建华
而出
身旁
65.
叠@@
开销
盗版
赛跑
东北@@
斯坦福
折叠
纺织
神父
门票
信服
6000
indows
安全保障
封面
敌对行动
一无所知
光荣
市场份额
冒犯
寡@@
展览会
友好@@
总统选举
大赛
风味
sp@@
习惯@@
az@@
恰恰@@
集体@@
1:@@
存货
悲
罩@@
劳工@@
喉@@
奸@@
梗@@
永不
欧洲人
发展方向
挫
收款
脸色
阻挠
品尝
溯
盈
原有
毁@@
毯
厌烦
处分
理所当然
相片
重地
嵌入式
散射
杨@@
最高@@
有数
协力
敞开
踢足球
转而
同性
耕地
3/2@@
48/@@
橱@@
逃走
出庭
搅拌
东北部
雄性
一则
咽@@
孩儿
态@@
龙头
org@@
农田
狡@@
高尔夫球
内衣
追加
惨
基因@@
工艺@@
抓到
兴奋剂
饮水
香港特区
放射@@
工作环境
换取
普通话
葬@@
含水层
掺@@
深刻@@
赌@@
减至
绘图
掏@@
纳税
苔
评判
辖下
不惜
发病
能干
前总统
委员@@
非统组织
执业
加固
培@@
在座
增补
忙于
掀@@
添@@
江省
反击
法律顾问
胚
警员
线程
自卫
造就
台风
禽@@
陀
上海市
后天
如是
疫@@
栗
降临
β
打球
交通工具
傍晚
旷@@
轻轻地
公积金
准备金
那个时候
摇滚
技术人员
第三国
不清
下落
截然不同
数学模型
瓦斯
这时候
受益人
彩虹
蒜
呼声
de@@
阵地
务必
紧密@@
缓冲
日渐
许多问题
瑜伽
机床
组织者
our@@
所罗门
沦@@
旋律
纪念日
靠在
圈子
敏锐
经常性
胶囊
面貌
保姆
2.5
夸大
碘
打架
番@@
迈进
通行
悬挂
解剖
1960
突然@@
高度@@
中共
选区
基础教育
太阳系
盟约
绝大部分
浴@@
爱丽丝
好久
巴尔干
弄清楚
爱国
逗
高频
嗜@@
壮大
芒
触及
赠
托管
相一致
衬@@
欣慰
清算
德国人
竞争性
出资
其它国家
室友
公职人员
忠告
蓬@@
保佑
事态
甜点
此人
Add.1
UN@@
yn@@
人工智能
硬盘
方言
来往
建于
观赏
微不足道
植被
硕士
编织
呵
水手
省级
产假
区间
帝国主义
浆@@
自称
广西
职业培训
水流
入睡
1983
悲观
扇@@
闻@@
号召
老龄
三级
抨击
含糊
蛋白@@
专业化
才华
口译
一经
绳之以法
弗朗@@
惜
外汇储备
汪
予以@@
冬奥会
排出
ert@@
协商@@
另一边
婉
os
体力
安全感
征得
珊
66.
疲倦
过大
闷@@
无处
一身
室外
此处
粪@@
现行@@
地名
某些方面
知识经济
打字
缓冲@@
中学生
绵@@
登机
疲软
欧国家
民国
前期
湿度
镀
WTO
恶性
知识分子
进制
消费品
结核病
P)
John@@
体育场
印第安人
断定
管它
送来
无罪
压倒
鹿@@
博览会
搏@@
Br@@
人身
商品价格
感到满意
有说
编纂
德克萨斯
浪潮
视作
养老@@
通用汽车
线圈
肥料
卓@@
嫌犯
聆讯
胆固醇
2005/@@
宣誓
Ban@@
ian@@
滕
防火@@
RE@@
侧面
物件
主持@@
才能够
掠夺
刊物
大连
运到
一只手
不符
摩尔多瓦
园林
担当
19.@@
老龄化
行长
火炬
洽@@
逗@@
力图
部委
偏好
愈合
浙江
1),
小朋友
注明
碰巧
诵
某项
点心
万物
带头
空袭
﹐
ach@@
外债
那天晚上
na
Pro@@
呐
悬
而后
动向
咸
推断
积极参加
朝鲜半岛
劫持
房租
出价
闯
发展局
工党
默默
扫描@@
点子
籽
蓝图
化妆
实施情况
衍生@@
黑洞
技术创新
凯西
酋长国
3%,
唯一@@
承包@@
炫耀
航运
入狱
失衡
杀虫剂
照射
踪
67.
下游
图象
持续不断
轮到
常数
底层
爵@@
国产
野心
公元
复杂@@
好听
好笑
流浪@@
含着
瞩目
制作@@
嫌
视网膜
每晚
蒋
ong@@
对冲基金
强加
贬@@
一辆车
多层
数次
说完
长会议
跑去
各成员
肇@@
公务
橘@@
仅限于
100%
宣读
晚期
软弱
庄严
标本
嘉宾
犯罪活动
已获
求婚
令人担忧
芬@@
蝇
下调
互补
内部审计
纯洁
毙
邮寄
非常@@
三角形
堂上
常去
态势
外星人
负债表
顺利@@
代表们
拿出来
精细
肯@@
表扬
战线
番茄
配有
交互@@
发展过程
年头
AD@@
离子@@
哨@@
就读
市值
借用
夺取
当选为
室内@@
和谈
教士
极化
语气
矮@@
上级
保证@@
小岛
波斯
眠@@
那年
栽培
汇率@@
%),
离散
AN@@
一大笔
孤单
越来越@@
阵列
社会学
筋@@
起步
违法行为
us
撤@@
竞争@@
不着
怎么可能
蓄意
高水平
火鸡
研究机构
撑@@
现实生活
恭喜
涡
虔诚
交由
那么大
遗址
非洲人
野兽
国民党
家庭生活
玫瑰@@
竭@@
赌场
老天
经济改革
牛仔
宫殿
皇后
服役
花生
77@@
子公司
载荷
停留在
失踪@@
心肌
气质
抵御
控制了
衰老
家们
甩
一手
尖锐
教学改革
闭会
说服力
市政府
帆@@
亿@@
茅
下方
排雷行动
绸@@
卫生间
添加剂
足轻重
巨型
普尔
胡锦涛
演唱会
改正
裁减
适用范围
来着
轧
野外
iP@@
哲@@
侵权
好用
头顶
普遍存在
威胁到
搅
惩处
灯泡
特尔
绿化
导出
屡@@
急于
骨髓
婆@@
成份
渴@@
人为@@
女演员
源代码
鸽子
man
嘲@@
款人
自定义
誓言
比喻
稳健
国家法律
构件
P-4
严格遵守
戈兰
柔和
HR@@
青岛
争执
渊@@
驳
中华@@
满足@@
醉了
复发
法学
镶@@
朴@@
关键性
工序
新颖
罪案
指针
推向
母乳
纳粹
意外@@
耸@@
CT@@
告诫
唤醒
库尔德
Bar@@
一些@@
文职人员
湖区
鼠@@
刮@@
患病
名第
所作所为
年轻@@
示威者
南北
奢侈
架子
四季
接入
内政
来电
馏
每项
被判处
排雷
提起@@
炎症
疲力@@
齐全
担负
挫@@
AM@@
鸿沟
宪法@@
政体
洛@@
着迷
口腔
心想
翻译成
68.
基本建设
工艺品
结实
螺旋@@
lin@@
施加@@
无礼
供电
肠道
开业
全国范围
刹车
有关人员
老太太
孙子
河边
重大问题
新时期
无穷
遥感
想见
合办
抗拒
雇@@
存取
法定@@
倾销
帐单
成功@@
北省
型企业
商量
坚硬
线条
不良@@
疲惫
摩尔
溺@@
阿拉斯加
故障@@
畔
西红柿
山东
演唱
诞
上场
斑点
这笔钱
一并
动性
移民@@
促销
俘@@
M.@@
海事组织
锰
ich@@
器械
转录
居所
侨@@
参赛
工作岗位
悬浮
抽样
首选
骑马
渊
经济问题
﹑
俄亥俄
减税
西班牙@@
签约
千万@@
践@@
on)
智商
毗@@
自由党
Y
营企业
密钥
盗窃
移动电话
裂变材料
达致
工作报告
棘
发言@@
很久以前
积极性
uk@@
导入
总线
噬
自动@@
钱其琛
务人员
国际性
维持@@
耳机
订婚
匪
婷
迟早
体系@@
奔跑
干脆
运载@@
冲洗
圣地亚哥
E.@@
阔@@
印度洋
参赛@@
国家主席
安全带
送去
重构
人事@@
5,
半夜
懒惰
输入@@
检察长
簇
躯@@
照相
左手
标志@@
苛@@
高贵
化物
有害@@
老大
诽谤
刺激@@
敌意
国度
生前
投标@@
源泉
代理商
却@@
戴@@
毅@@
汉字
阐释
歌声
海鲜
炭@@
聘@@
连接@@
中小学
辐@@
迹象表明
多伦多
廖
职业教育
极其@@
1974
写入
芳香
激增
大街上
贪污
分公司
放电
满意度
说了
IB@@
群落
扔@@
芦@@
开除
落下
酌
国立
怜悯
气流
韵
Pa@@
任命为
饥@@
完工
ers@@
54/@@
国防@@
中国文化
轮流
载入
刑事责任
浑@@
不宜
坟墓
萌@@
迷惑
As@@
失调
放假
伺服
死亡人数
蒙受
amp@@
外衣
撤军
贮存
传播@@
寻求庇护
引爆
警队
Add.1)
地层
新任
酬@@
微弱
令人不安
窒息
简易
法律事务
膳@@
ina@@
沙龙
收藏@@
辨
中介@@
清新
Tr@@
细致
鼓掌
动态@@
官方@@
德语
中西部
推广@@
列明
喀布尔
闯入
仲裁庭
灶
韧
前夕
捆@@
_$_ascii@@
休息一下
飞行器
湖人
狱@@
噩梦
园区
2500
多米尼加
嗅@@
图像@@
安全措施
交战
上年
出生于
小费
许多方面
饿@@
回升
调查研究
全会
军备竞赛
商家
慌
热闹
黎明
丑@@
财务状况
军用
发展前景
促进@@
妆
律政司
沈@@
共体
往返
撤消
乙醇
裂纹
额外@@
2004/@@
丝绸
各样
性化
二战
结构调整
缺血
雀@@
波恩
饱受
导管
牛顿
队列
曲面
饮酒
ity@@
接替
机会@@
路由
兼容
弥漫
方位
蛛@@
上游
兽医
愉悦
磁性
端口
仰
饥荒
con@@
虚构
谎@@
拓
仅对
开通
忘掉
照看
辉@@
顺着
赐@@
之路
讼
唤@@
歌词
一如既往
地基
宣扬
枕头
牛津
病房
魂
看完
匮乏
导弹@@
机动@@
人次
霍华德
符@@
简便
顶尖
ic
低廉
列支
工作安排
酸钠
冷漠
掩护
政务@@
海面
原则@@
过错
丙烯@@
寄生@@
毫无意义
涩
评分
69.
危险性
考核
不多
境界
壮观
情侣
润滑
资产阶级
【
分层
尼日尔
房地
疫情
迈向
越南@@
酗酒
外形
盲目
连锁
国务@@
持续增长
滚动
悬崖
一幕
市场营销
幕后
水上
吉布提
1975
年长
怎能
西装
起伏
两侧
人力资本
详细说明
当务之急
政变
馈
中国古代
可可
最低限度
名片
探险
率先
诈
难怪
国际发展
坚定不移
绝不能
划为
腿@@
牢记
儿女
灌注
不断提高
整齐
枢
静电
心血管
社会生活
粟
贸@@
CN@@
宏观@@
心目
不只
党内
未经@@
浙@@
纪念碑
农业生产
博茨瓦纳
拇指
评论家
酰胺
NF@@
垢
com@@
兜@@
有点像
结成
果断
骚乱
鹅@@
交响@@
背面
抵触
行进
周边@@
肚@@
峡
深夜
ish@@
前锋
遇上
飞到
地震@@
宪报
心思
语文@@
货币基金
扶贫
米饭
谋生
走势
如何@@
录像@@
水位
极少
IV@@
不觉
主要内容
代理@@
油气
牵头
得益于
TE@@
题材
人际关系
捣@@
耻辱
可信@@
械
波浪
自决权
垮@@
希特勒
背部
不尽
瓷
埋在
飙升
忌@@
常识
晃@@
可望
步入
火花
百分@@
筑@@
98@@
允
可悲
景气
疾
喇@@
富含
】
凹
羞辱
氨基酸
现代社会
通行@@
服务于
真爱
企@@
桌@@
贯穿
路程
达拉斯
田野
说明书
火箭@@
约合
颤抖
滑动
体温
俄语
向来
戴维斯
倒霉
袖
投机
警务人员
辣@@
刃
您好
2017
吉利
奢侈品
适于
人类社会
优异
晴@@
甲烷
统计资料
金融体系
El@@
去掉
向往
媒
亲近
厘@@
70.
旅途
AB@@
紫外线
证监会
net
别无选择
热烈欢迎
国际事务
妞
激光器
自尊
分量
叙事
只得
权力下放
软骨
骆驼
破产法
法律责任
鸡尾@@
浮动
清真寺
『
光泽
坠
核电站
钳
DE@@
寡妇
绳@@
胡萝卜
身于
后退
社会保险
解脱
97@@
庭长
急救
收敛
感恩
相互关系
底特律
开花
畅销
起重机
交出
徒刑
流动@@
经济转型
资金来源
PO@@
了解了
ment@@
抗原
or
元首
司令
忍不住
脑海
许诺
赔@@
A/CN.9/WG.@@
十字架
牡@@
Pr@@
上任
晨@@
参与@@
思念
赚取
金子
光度
难免
独联体
近似
当地居民
种族@@
财经
钦佩
疵
一阵@@
梯度
酸性
A/63/@@
优于
咸@@
重心
雇佣军
三是
圈@@
售卖
平方公里
弦@@
晚安
真心
TILDE@@
倒退
头衔
管辖范围
闪光
苍蝇
鳞
独裁@@
蛮
这样@@
香港政府
戒烟
放慢
殿@@
邮报
估@@
可不可以
惩
投资银行
装载
转子
披
起源于
20.@@
作弊
P-3
发表@@
1999/@@
玩意
继承人
今次
定义为
平衡@@
忧郁
慌@@
河水
足球赛
鬼魂
做出决定
前沿
溃疡
腾讯
辍@@
修好
无尽
白血@@
系统性
香料
一线
出口商
诉诸
擅@@
爪@@
飞翔
』
复活节
枕
磺@@
入学率
送回
长寿
反应器
踝
不休
沉积@@
油机
移交给
寂@@
XML
搬迁
理解为
.org/@@
时段
激怒
硕士学位
全套
师傅
打工
不合
强力
欺负
决不能
树下
现实意义
门户
共同发展
玛丽亚
确性
不丹
单据
头疼
扔掉
点火
α
二手
咖啡馆
天气@@
不单
晋
纾@@
逆向
And@@
工作效率
投影
池塘
沿海@@
ID
主办@@
婚后
孔子
教育机构
安排在
年月
抓紧
相位
分钱
螺栓
光电
平壤
融和
一年@@
彩票
德国@@
决不会
匪@@
小国
彦
雕@@
当心
时分
渔民
不少于
氟@@
追查
重大影响
天主
馅饼
参谋@@
联想
同等@@
动乱
家禽
末日
本地@@
癫@@
优越
分辨
制约@@
信息社会
减灾
矿山
一个@@
周期性
武术
袁
厉@@
发布会上
投机@@
下巴
东南@@
副总裁
请愿
有线@@
难者
oy@@
为首
检疫
蚁
发生率
格外
丛@@
敲门
长途
FCC@@
充沛
围巾
有关资料
自由主义
鲸鱼
橙@@
违
侨
珊瑚@@
饶@@
ern@@
颇为
尘埃
强势
系列@@
入手
抉择
LE@@
合理性
天气预报
应通过
文凭
转运
孝
惩治
最大化
间断
抽出
月光
本应
片刻
进修
解体
述@@
乳房
皂@@
E.
葵
门诊
出场
方面@@
扳@@
率@@
侧重
殖@@
ast@@
堕落
妥@@
公立
硅谷
跌幅
存有
西西@@
陆续
面谈
冒着
好评
素质教育
金属@@
ba
上下文
共存
萨达姆
受益者
财力
小姑娘
性命
构思
直流
秘诀
全人类
浇
下届
猎物
粹@@
居留
幻觉
梵@@
PE@@
划界
合理化
离不开
网上@@
质量管理
共用
掌管
瞎@@
首席@@
马铃薯
一块@@
不对称
栖息@@
落入
详细资料
资料@@
保育
程序员
赤贫
住处
财政政策
寂
爸妈
领养
倒塌
共同点
画画
少见
集成@@
鄙
重要贡献
4(@@
学时
煎
坪
晓得
求职
讲究
反向
各省
度量
皆@@
门槛
大赦
度假@@
美洲国家
萃取
俘
最先
温馨
挑剔
本项
远见
门徒
窥@@
为时@@
仍会
斡旋
独家
关爱
料到
书面答复
坯
工地
活塞
昭
海港
酱@@
管理人
5,@@
CM@@
巴厘
蓬勃发展
71.
兄弟姐妹
司法部门
祭司
合法化
挡@@
瞎
要不是
顽固
严密
述及
使馆
否决权
商用
精通
判刑
唤
帧
有幸
正当@@
苍@@
出生@@
制定@@
帖
总和
空气@@
论据
文艺@@
领军
全体@@
全方位
Univers@@
候选
公正@@
亚太@@
信息交流
并说
很深
腐败@@
蝙蝠
义务教育
豁@@
给定
国际环境
保护措施
Al-@@
世贸
菠@@
贯彻@@
web
可口可乐
工作原理
致死
2001-@@
Cl@@
舌@@
嫌疑犯
塌
愈来愈
划定
狩猎
矿床
强国
恐怖活动
援助@@
真主党
350
不就
期盼
握着
环境管理
72.
屏蔽
间或
企鹅
缓存
诱人
隶@@
课本
克斯
天文@@
客机
检查组
激动@@
75%
弛
膜@@
实证@@
捉
微粒
沙子
申请书
盛大
道义
劳拉
包括在内
归纳
按下
琐@@
背包
23.@@
无人@@
该市
修订@@
撤退
语言学
高山
丢掉
海洛因
专责
对准
薯条
该次
轮船
4,
南美洲
处理方法
直布罗陀
伊利
得意
眼球
UNE@@
傅
冲浪
反射@@
巧合
彰
精明
大方
滋
滋味
过夜
原文
贫民窟
选取
露天
城镇@@
村里
汇票
纺织@@
颖
1972
小丑
开放@@
画廊
自制
退役
颜料
一步@@
改善了
财务管理
信道
把门
无所谓
机动
戳
无意@@
榴@@
真实@@
CP@@
抄
液相
iii)
共同利益
化疗
牧场
经纪
肾上@@
胃口
预警@@
习惯于
剂@@
扣留
手腕
缔@@
文盲
中小
执法机构
高涨
93;@@
动人
段@@
遥
喂@@
国会议员
瞻@@
第一季度
公立@@
编译
哮喘
电位
管理制度
老家
耕
逝世
餐饮
调查人员
赛场
Bl@@
立法机关
生命周期
色调
000@@
1976
发展到
磷酸
花瓶
锯@@
翰
得起
性爱
正规@@
诉讼法
\
丑陋
承包
沼泽
用药
适应@@
oog@@
建交
振奋
数位
犯错
布满
枪击
毯子
电荷
知晓
迪斯尼
性状
推销@@
稳步@@
过期
避孕
夺走
/CR@@
冰冷
叫醒
哩
有所改善
谋杀案
无能为力
ek@@
同位素
履约
歉@@
pl@@
汲取
踏上
防护@@
enn@@
关节炎
创下
庸
88@@
保守党
自主权
ect@@
拙
种族隔离
缆
足联
介绍给
季节性
尸@@
法文
靴
可卡因
各不相同
呗
开火
未成年
咨委会
流泪
甲状腺
纠缠
西省
要紧
财政部长
市场竞争
正常化
鸣@@
造林
首领
防水
东南部
挪
源头
晴
衷@@
(2002)
Wor@@
丽@@
公路@@
喷射
捞
赞助@@
不可缺少
小组成员
英文@@
辩解
光辉
喇叭
蘑菇
增值@@
捧
掩
砷
鲜艳
丰厚
单车
反政府
喘@@
庄稼
阴道
世纪初
国家主权
套房
末端
血性
夺得
描
祈求
肾脏
血浆
复合@@
之夜
栈
为生
咨询公司
左侧
方向@@
人生@@
关键词
关闭了
函@@
杀戮
硬度
铁矿石
专为
哎
金融业
恳求
感染者
攀升
上门
奴隶制
嵌入
高手
厦@@
空中@@
羁押
青春期
罗伯
墨水
衬衣
变态
心跳
拦截
筛@@
肖@@
聊聊
传闻
替代品
教养
搞笑
管内
车型
需求量
et
王后
学生@@
恰好
批发
高品质
嘘
纺
进食
健身房
不能不
控诉
真实性
纹理
NA
大陆@@
要地
咱
凑@@
吼
铲除
橄榄球
灾区
监护人
该案
4%,
妖@@
现场@@
聚焦
更为重要
天文学家
湖南
病菌
1200
中子
友情
姑
拉丁@@
注销
窗子
债券@@
周刊
涵@@
畏惧
知情@@
矫正
同样@@
心爱
增殖
声援
故乡
苑
人权领域
幽灵
顾问@@
停顿
粥
获奖
沃@@
袭击事件
ey@@
iy@@
伸展
厨@@
民意
坠毁
盟国
液压@@
行情
合体
失败@@
矢量
平息
代数
风景@@
j)
一日
保持@@
打击@@
星座
氰@@
秃@@
自发
好坏
皮带
终生
肝炎
主人@@
坚果
明信片
不快
电邮
肋
想一想
战争罪
暇
对外开放
找寻
远远@@
听觉
外围
躺
热衷于
反对意见
奸
废墟
2000/@@
加盟
小企业
联合行动
民们
通风@@
颤
产后
开放式
笼子
右侧
奖牌
衡@@
体制改革
儒
漫步
饷
马拉松
兵力
绵羊
脚趾
饶
催
分布在
大都
投资组合
水池
78@@
敞
前行
模样
穗
剧场
毒品@@
西北部
轮子
傲
座椅
服务中心
管理信息
贮@@
鹦鹉
原始@@
赎
宇宙@@
借钱
杏@@
君子
管理机构
信奉
回报率
泛滥
戏剧性
洗衣机
相辅相成
只有这样
听懂
个人电脑
放学@@
油脂
竞争优势
监控@@
矿石
踢球
2000-2001
订约
低价
鳍
制动
哟
士兵们
期徒刑
疤
香肠
硫酸
麻醉药品
保险费
分隔
批发@@
看在
上尉
电磁@@
相互依存
录制
所有问题
无人机
解释一下
产业化
理事@@
体型
宏伟
转入
威尼斯
往下
两国政府
废话
本该
果真
化解
实效
疯@@
书包
尺@@
操场
祥@@
烧烤
耗尽
遵
凳
在校
起义
饭菜
Ex@@
竞
臀@@
赔
VII@@
局限
乖@@
屯@@
控股
纪录片
贮
高高
优化设计
好比
憎恨
棒@@
流逝
着想
争辩
外人
仅次于
岳
栽
皮质
安吉
膀胱
诚挚
诱发
起始
扰乱
响起
人造@@
服装@@
雨林
靴子
总计
操控
港人
1977
公投
Cor@@
域名
师范@@
渺@@
领导层
伐@@
尽情
腐烂
访问期间
魔力
及早
始终@@
求职者
坦诚
居住@@
理论@@
生们
固定@@
Man@@
就任
斤
狂欢
驶
摩纳哥
紊乱
73.
悄悄
调研
集中精力
ald@@
明确表示
熊@@
加油@@
民意调查
电子产品
称号
赐给
丘@@
人行道
西南部
氮@@
皮书
限制性
攻击@@
过热
选举产生
地理信息
老百姓
PS@@
庄园
徘徊
核问题
电力系统
着火
分校
橙色
步枪
广大@@
挑衅
阵营
受到限制
痫
公然
梳
单证
所以说
超声波
偷窃
发电厂
详细介绍
超重
下列@@
不合@@
助长
拉开
致敬
不断@@
中国社会
呕吐
忆及
想得到
羽毛@@
轮椅
ine@@
恕
海平面
界别
盖上
59/2@@
不仅要
佣@@
卿
睾@@
2003/@@
下雪
公用@@
权主义
特殊需要
骚
地段
地理位置
截面
疏散
里昂
mar@@
温哥华
皮肤@@
邀请@@
嘴@@
愿景
疏忽
相识
峡@@
敌军
英语学习
誓@@
大多是
衷心@@
侯@@
拢
生产性
除掉
%,@@
涤
罐头
露面
复仇
皱纹
行之有效
躲@@
历史学家
摄氏度
显出
李先生
成千
欧洲安全
PV@@
主宰
凉爽
官长
行李@@
重金属
损耗
尉
21.@@
侵犯了
改编
ie
浴缸
裹
P/200@@
虹@@
一惊
信息管理
挠
生产过程
谜@@
Rev.1
多功能
辨认
主权@@
吓得
呼唤
艳@@
革@@
譬如
取缔
扩展到
盛行
说好
超人
阁
靶
检查站
初始@@
发布会
酵母
秘@@
领事
Tw@@
霉@@
传染性
兄弟@@
世俗
喝茶
庆祝活动
集资金
数据处理
根深蒂固
观测@@
文职
全面@@
%(
5(@@
TD@@
江苏
聪明@@
马尔@@
生物武器
硕@@
乔丹
头盔
寺庙
最后期限
武器@@
别处
山坡
温家宝
筷子
嫁@@
规程
面对面
74.
姨@@
old@@
标明
颈部
兄@@
合资企业
篷
结合在
稿@@
平线
烧毁
打包
犹
看了看
半场
携
新近
置为
医务
新书
毒药
社会责任
西部地区
权威@@
继电器
波长
聋
首饰
一个个
龙虾
买房
据了解
连结
上楼
德拉
经济建设
切尔
材质
唉
性病
无奈
议院
零食
书架
pr@@
人员@@
侵权@@
出发点
庆典
恐怖组织
海南
生命力
缺损
越是
逃犯
p.@@
学好
拉萨
谐
有力地
从头@@
口径
行政机关
App@@
发展观
堆积
出租@@
舞蹈@@
财政援助
透镜
铵
德黑兰
结核
肺结核
不走
岂@@
招聘@@
有益于
滑冰
赦免
客车
监督管理
严谨
售货@@
邪@@
上层
宁可
花粉
至上
英俊
迎合
引述
长途@@
噪
达尔文
领事@@
上天
打出
矿井
拷贝
烧伤
稚@@
索尼
葡萄糖
西非@@
驱使
取样
断言
无私
10)
咱@@
掌声
贝卡
天主@@
落后@@
展商
洗手
盘旋
耗费
铁矿
发展进程
灌输
社交@@
西瓜
交代
保全
效率@@
De@@
不前
北美洲
威力
建筑工程
歧视@@
废弃@@
挡住
妥善@@
用电
深圳@@
荷载
饺子
和谐@@
中美关系
托运人
凋亡
管子
终极
sk@@
固定资产
晶体@@
打下
1971
厌
人口普查
几天
上台
妻@@
对策研究
木板
科罗拉多
124@@
病因
考古@@
谎
转弯
辙
通讯社
光灯
不动
坤
定额
怪异
提取@@
用具
申办
执法人员
螺钉
明明
星级
浦@@
潭
狱中
相干
罢@@
重塑
鞘
乌龟
署@@
脱落
贸易伙伴
蛾
单身@@
赌注
联络小组
财物
CD
研究领域
貌似
不比
揍
杂交
航海
拦
讽
谨代表
避免了
一律
埃@@
审裁处
幸福@@
沌
预后
油画
迫性
书本
重现
香槟
歧@@
赛后
弹头
精华
血腥
迁徙
连任
32@@
杀伤性
预审
1969
1973
兹@@
爱滋@@
虚拟@@
巴塞罗那
手持
网民
轩
半径
海绵
爆破
万分
其间
发疯
抗议@@
集团@@
南美
司令@@
油墨
慈善机构
联大
遮
东南
蜗@@
骑车
一整套
刊@@
宵
打折
招致
沉思
稚
钢板
一等
叨
旬
栅栏
日益增加
可口
见见
无用
电气@@
重复@@
居留@@
矩形
车手
不懈努力
厌@@
快餐
ay
移植@@
购房
大理石
好起来
谚语
中场
博士学位
原籍@@
悠
=
Dav@@
专心
唾@@
无关紧要
管用
中途
游艇
现有@@
免疫@@
市场化
古董
幻灯片
板上
其它@@
大笔
训@@
远地区
差额
纺@@
加仑
帆船
晴朗
选为
传输@@
可变
司法机关
纬@@
ion
开朗
较快
前去
撇@@
玩儿
哑@@
年老
店主
燃烧@@
休闲@@
悼@@
成为可能
职场
囱
定居@@
平均水平
迷信
士气
定位@@
栖
樱桃
鳄鱼
官僚@@
平滑
理论分析
拉伸
电动@@
议会选举
孵@@
参加@@
气压
光子
固然
改革进程
10/@@
搜
殖民主义
热水@@
虚伪
书桌
难民@@
南瓜
威尔逊
完备
小学@@
敬畏
理工学院
锐
静止
成长@@
无常
下达
防火
170
拱
玩意儿
保险人
年鉴
火腿
眨@@
组分
排水
旭
还价
阿拉伯人
10000
同情心
拿下
制药
气动
盲人
高峰@@
思索
搬家
浑身
牵引
箱@@
闭幕
嬉@@
跪@@
陈旧
黑夜
教义
瓶颈
需品
欠款
激励@@
非法移民
首尔
本项目
开发者
瓦解
茫@@
虐@@
栓@@
战斗@@
括
暑@@
所有@@
掠@@
聊@@
衔
键@@
皱@@
时间@@
诉人
棺@@
中美@@
彬
柳@@
痹
熏@@
束@@
胀@@
莹
绵
懦@@
巴马
茅@@
褪@@
蚊
砌
矫@@
秉@@
萧
巧@@
苏丹@@
绩@@
哎@@
鉴
滔@@
际@@
厉
芦
健康@@
镑
聪
删
逍@@
殷@@
私营@@
僻
牵
陡@@
瞬@@
99@@
辱@@
壳@@
圭@@
阁@@
窑
荒
栽@@
禽
孩
昔
菲@@
肤@@
敞@@
鑫
蔑@@
叮@@
国主义
颜@@
卉
昔@@
A/6@@
助于
沐@@
贱
犬@@
婊@@
无论@@
漂
吴@@
榄
页@@
棱@@
唇@@
猾
衍
卦
饵
泌@@
引人@@
pp@@
剥
贞
牲@@
迅
寨
颌
爹
唔
德里
利于
盼
抵押@@
决权
痉@@
身体@@
罢
姊@@
替代@@
喋@@
赴@@
淹@@
Un@@
宵@@
姓@@
?@@
琐
谈会
兆@@
动物@@
跤
卜@@
庇@@
准备@@
池@@
熏
撰
纤
大气@@
匀
癖
挛
GB@@
莎@@
厄@@
啦@@
豫@@
2002-@@
士们
翘
心脏@@
冕
实在@@
膛
丐
钴
僧@@
莽
蔑
烫@@
殖民@@
绎
室@@
容性
一天
藓
剃@@
感到@@
雌
浊
狐
帖@@
桔@@
冗@@
柬
治疗@@
醋@@
怯
颤@@
全力@@
涕
舵
衔@@
韵@@
汶
撼
锤@@
缕
㈣
酵@@
厕
哪@@
窟
陨@@
询@@
薯
新生@@
栖@@
蹄
粮@@
倚
准入
扯@@
敷
拌@@
帘
试验@@
慨
语言@@
骤@@
窝@@
燥
镖
挨
蚊@@
哑
溪@@
氓
Ⅱ
愿@@
磊
薛
鹤
啶
惟
熙
鄙@@
笋
垮
娇@@
任命@@
拒@@
淫@@
破坏@@
觅
辑@@
毕@@
括@@
芳@@
统治@@
肋@@
卧
上升@@
仁@@
橙
删@@
皂
十字
蕊
芽@@
鲨
蠕@@
忏@@
嵌@@
隘
趁@@
一无@@
纬
附属@@
铲
捆
膝@@
姐@@
肤
士学位
钓@@
缅
吝@@
不少@@
贿
美联@@
灼@@
耸
连续@@
菊@@
暨
而易@@
气候@@
缆@@
奥运@@
孢
脓
马拉@@
鲍@@
=@@
钞
拦@@
外线
依赖@@
朋
直升@@
粪
俭
崩
舅@@
皿
有限@@
咳
罂@@
妃
q
内部@@
不列颠
莲@@
旱
阐
勃@@
专家@@
后续@@
币@@
壤
磺
嚷
受害@@
甫
事务@@
伽@@
A/AC.@@
诺贝@@
部非洲
埔
楠
羟@@
虏
宰@@
慎
敷@@
感性
岌@@
瞪
游泳@@
能性
痘
迎
贱@@
沟@@
趴@@
某@@
佐@@
基督@@
惑@@
蛮@@
渎
燥@@
巴尔@@
兜
甩@@
第一@@
斧@@
矽
茂@@
泼@@
黯@@
蛇@@
冉
沼@@
所在@@
烛@@
瘟@@
睹
霾
恭
锻@@
鞍
陀@@
蹦@@
哄@@
荃
悖@@
戊
Z
漠
橇
吡
黏
谊
分布@@
淤@@
屉
男女@@
闯@@
螂
狮@@
哼
受到@@
痰
秦@@
愧@@
咨询@@
拾
宠
虽@@
橘
实质@@
勺
绷@@
吟
涤@@
孤
喽
硼
也许@@
否@@
吾
indow@@
腱
碧@@
滨@@
砰
hon@@
猖@@
朝鲜@@
须@@
勾
悦@@
粤@@
恳
竣@@
遏@@
示威@@
咒
拌
弘
稠@@
明确@@
臂@@
伽
关系@@
滥
寥@@
犀@@
逝@@
瘤@@
稻
匿
罗马@@
赡@@
炎@@
蓉
佣
新兴@@
彗@@
钙@@
湛
姆@@
舅
熬@@
萝卜
丧
驱动@@
剔@@
彬@@
咀@@
是说
倡
不同@@
钮
蹲
葱
迹@@
..@@
逮@@
窍
弓@@
慑
寝@@
资企业
睦
咋
墨西@@
措@@
靶@@
瑕@@
茹
篱@@
稽@@
侏@@
弥
凄@@
励
夕@@
苹果@@
腺癌
悟@@
喃
禅
蚕@@
促@@
持有@@
骇@@
腕
匀@@
倡@@
渥@@
摒@@
蜡@@
澈
宇航@@
拣
舷
湾@@
{
恳@@
结盟
刹@@
狙@@
亵@@
焕@@
普遍@@
脾@@
谦
}
痊@@
凰
合在
恪@@
禧
意大@@
骚@@
荧@@
杆@@
洗衣@@
天然@@
淀@@
倚@@
窘@@
嘎
嚣
挥
镶
瞬
歪
猿
懂@@
咕@@
哺@@
禄
藐@@
iPhon@@
捏@@
〉
不仅@@
腊
乔@@
卒
芥@@
藻@@
阈@@
铐
℃
谣
事实@@
雯
AC.@@
A/C@@
霆
哄
鼎@@
揽
舔
秽
坂
讽@@
钩@@
竟@@
掠
梢
0%
淫
成为@@
>
倪
暑
殊
麟
ML
巷@@
甸
萎
熵
雏@@
羽@@
探测@@
杠
公民@@
阮
宴@@
昌@@
蕾@@
谊@@
冤@@
捏
杏
绊@@
魄
声波
继承@@
"@@
蒲
IL@@
牠
纶
褶
鞭
晰@@
璇
嚏
犁
宋@@
眶
笆
违反@@
颖@@
东省
议会@@
躯
决议@@
竖
慈
啥@@
箔
砾
讳
德鲁
谅
扩大@@
通用@@
俞
冗
肚
菱
屠
羟
性别@@
碟@@
颅@@
镉
醇@@
愁@@
虹
邪
一点@@
撰@@
加拿@@
轰
嗜
寸@@
烷@@
巢@@
挚@@
汹@@
掺
R.@@
聋@@
掘
音机
芒@@
轨@@
明天@@
楚@@
澜
糕
陋
障@@
理工@@
脾
137@@
胚@@
共产@@
恨@@
曳
崎
酝@@
卤@@
橄@@
摄
评论@@
窍@@
峭
驴@@
á
斩@@
j
盾@@
侍
寡
邸
我们@@
妈@@
颂@@
罹@@
獗
睫
席会议
唠@@
抖@@
〈
匆@@
绍@@
怎
歹@@
译成
仕
咆@@
易斯
鸽
坟@@
忆
蕴
2000-@@
峙
捧@@
导体
哮
克萨斯
缉
3(200@@
同性@@
大会@@
影响@@
瞰
搁@@
酋
寇
荆@@
侣
下放
矛
堤@@
峻@@
娇
跋@@
兽@@
伍@@
谓@@
妹@@
柠@@
炖
府@@
豌@@
酋@@
蔓
整套
斟@@
贤@@
驭
蜥@@
彰@@
鸥
牟@@
暗中
庇
渲@@
劈
葫@@
蛙
棚@@
鳞@@
闸@@
硕
拧
哀
玄@@
颚
庙@@
筏
铭@@
锂
啡
睁
廿
蚤
懊@@
攀
2004-@@
畴@@
饲@@
赚@@
威胁@@
萌
诫
优化@@
洒@@
务员
剑@@
踢@@
俺
地下@@
淌
爽@@
斤@@
徐@@
乃@@
颁
犹太@@
秤
邱
A/CN.@@
扛
蕨
蒂@@
鼎
取得@@
墩
迫切@@
榨
驰@@
肃
檬@@
鲑@@
媳@@
蜴
又@@
樊
瞒
俱
孽
轭
芝@@
篡@@
萃
躁@@
枯
胧
夷@@
董事@@
褐
钨
柑@@
汝
哥伦@@
啤@@
斧
绚@@
赁@@
谬@@
需@@
邀@@
蚀@@
警察@@
煽@@
馈@@
做出@@
渣@@
憩
东道@@
撕
啸
妖
焙
碗@@
内政@@
纷
冀
抒@@
釉
二氧化@@
风雨
啮@@
垄@@
疆
孝@@
樱@@
稠
钰
限制@@
秆
杭
氏@@
汐
蹄@@
吾@@
炳
渝
畸@@
菇
夥
GD@@
坞
窖
蛎
镯
一步
蝶@@
贞@@
炽@@
魂@@
岳@@
铂
戏剧@@
蔗
虾@@
弘@@
产阶级
呻@@
鞍@@
下降@@
瘘
橡
簸
垦
驼@@
琥@@
盯
泼
波斯@@
虑@@
朋@@
r.@@
︰
定了
洲@@
朦@@
眩@@
糟@@
葡
憎@@
菩@@
睑
棱
停车@@
馨
搜索@@
鹏@@
疆@@
灸
烬
睬
钼
妄
喀@@
榈
螨
奕
嗅
娴
咄@@
毫
睫@@
咀
琢@@
硒
兑@@
榴
玄
晤@@
恢@@
瑙@@
各种@@
蹲@@
茱@@
#
吧@@
2008-@@
砸@@
痹@@
碍
僧
羞
啬
沪
嗪
芹
捣
苍
螃@@
侵
颞
热烈@@
蚕
嘈@@
宅@@
捍@@
睿
奈@@
岁@@
媛
湄
嘶@@
氰
龈
锅@@
忱
注意@@
í
拴
匡
绽@@
熨@@
咯@@
疤@@
尹
沧@@
琦
躬
孜@@
吟@@
锭
栩@@
沸
迭@@
垒@@
裤@@
鱿@@
褶@@
上万
啉
役@@
靡
疱@@
兮
镁@@
枣
筒@@
扮@@
鸭@@
也@@
怎@@
蟑@@
亚历@@
沾
绊
雇佣@@
颗@@
囚
玷@@
屑@@
勋
茵
焰
辟
锺
妒@@
窥
倘
嗡@@
沫
嫩@@
糕@@
蜿@@
噜
茸
羧
信任@@
印机
毡
跻@@
夥@@
履
锻
萤@@
逮
嗡
篷@@
耍@@
剩@@
曙@@
羔@@
絮
羁@@
棠
溃@@
碾@@
悉@@
裨@@
诀@@
御
瑶
_$_numb@@
殊@@
竿
耿
厢
乍@@
奴@@
少数@@
董@@
㈤
魁
俸
闺@@
陪审@@
嚷@@
灿
绘@@
铣@@
倦
合物
坍@@
凿@@
幅@@
销商
曰
穴@@
貌@@
趾
惰@@
枫@@
吱
帷@@
恍@@
躏
固醇
摩托@@
芮
聂
焉
谍@@
厥
反应@@
揉@@
茧
桐
骂@@
俊@@
奥会
梁@@
敌对@@
跚
蹂@@
沼
绞
诋@@
悚@@
佑
昨
叁
妮@@
慨@@
窜
昼@@
瑜
购物@@
°
翠@@
唬
屉@@
蹭
×
矢
虞
钥
亵
强制@@
晖
表达@@
岚@@
郝
羚@@
蹒@@
负债@@
咖@@
盔@@
候选@@
总的@@
办事@@
霖
翩@@
不相同
叙@@
凋@@
惬@@
眩
嗦
杯@@
喻@@
待会
榈@@
绣@@
切实@@
茉@@
铲@@
击者
恤@@
蔬@@
拽
言之
提琴
湍@@
<
地理@@
巅@@
安东@@
绰@@
蜘@@
莺
牺@@
雁
入学@@
旷
臣@@
辖
槟@@
脲
恙
崎@@
锡@@
歉
●
钛@@
妆@@
蜒
厘
裴
馅
棘@@
屯
妍
瘫
羔
娥
椒@@
阑@@
戚@@
缎
萼
淹
惶@@
拷@@
啃
信托@@
Ⅰ
悍
预防@@
放大@@
煌
盒@@
畏@@
袭@@
瞥@@
坎@@
ook
旨@@
耿@@
崖
γ
烘
吗@@
孚
烙@@
即使@@
髋@@
宙@@
锆
囤@@
瞌@@
腓
潇@@
荐@@
昭@@
眷@@
妓
跪
http://@@
楔
靖
晰
描@@
美洲@@
腌@@
膨@@
尧
ó
坑@@
蔗@@
贡@@
叔@@
熙@@
受益@@
梭@@
盯@@
三角@@
会员@@
悖
肛@@
裘
缤@@
脆@@
啪
颓@@
央@@
娱
胰
壤@@
奴隶@@
湘
邵
疣
赦
媲@@
昂@@
焕
猴@@
迥@@
骆
丈
机器@@
漩@@
秃
帚
伊斯兰@@
缅@@
葵@@
管辖@@
荚
乍
蝎@@
斋@@
惭@@
逞
资讯@@
蔼
凰@@
彤
酥
昊
泣
锑
锂@@
恐怖@@
筐
袒
umb@@
傲@@
冶
淬@@
疽
再生@@
发病@@
攒
瑙
骄@@
腋@@
蓟
适用@@
狭
蜗
藤@@
扩展@@
绸
贪
揉
硝
转型@@
职人员
子们
所得@@
哗@@
瀚
著@@
锣@@
2006-@@
踩@@
贸发@@
憧@@
撮
汁@@
篱
允@@
排放@@
之以@@
拭
脐@@
钡
芋
析@@
淮@@
茱
怠
煞@@
腕@@
拙@@
邹
钚
羹
@@@
]@@
刚果@@
挚
富翁
袱
蛤
运营@@
遴@@
<@@
拘
膏@@
娄
摧@@
醯
榨@@
禾
除此@@
岔
幔
殉@@
框@@
蔽@@
苹
鞠@@
挑战@@
烯@@
鳃
艰
撼@@
豫
趾@@
禅@@
庞@@
缮
碑@@
枕@@
波器
沃尔@@
缭@@
聪@@
堰
动产
脓@@
谋杀@@
发达@@
瓣@@
苷@@
睛
蜕@@
通货@@
臀
奄@@
寝
捅
祝@@
笛@@
昼
祀
经纪@@
当事@@
拂
棕
哗
扉
与会@@
伎@@
葱@@
佼@@
国会@@
瞄
骏
勉
央
癣
发布@@
崽
蹦
拉夫
苞
箍
苔@@
閒
倩
惟@@
酚@@
励@@
吱@@
诞@@
饲
呕
嘻
寐@@
涸
衅@@
枫
寺@@
梨@@
檐
菱@@
甸@@
瘠
荆
婉@@
捡@@
G.@@
汕@@
翌@@
姿@@
宛@@
惧
萝@@
锈@@
殆@@
刨@@
勺@@
噪@@
屿@@
繁
蝙@@
蝠@@
郎@@
陡
吼@@
野生@@
铆@@
惮
臼
谛
吠
伺@@
腈
髓@@
侪
萦@@
梓
薯@@
讥@@
怎样@@
沫@@
瞪@@
喱
殷
唆
督
私有@@
栅@@
馁
咋@@
愉
蔚@@
岔@@
怂@@
贫民@@
炔
溉@@
猥@@
俏
疙@@
汲@@
芜
蜷@@
伞@@
嘘@@
蹈@@
瞥
慷@@
粥@@
湘@@
盔
益于
砾@@
仔@@
萧@@
憬
你@@
孪@@
暮@@
簧@@
荐
酐
觅@@
雹
志愿@@
褐@@
分辨@@
紧要
常规@@
杉@@
侥@@
瘩
脐
姥@@
矾
泻@@
痤@@
萘
咕
幂
斋
究@@
花园@@
兮@@
卒@@
胫@@
恿
扒
腮@@
婶
胺@@
铎
华盛@@
逊@@
刃@@
asci@@
绷
苇
怯@@
杭@@
耻@@
尔斯
疝
钒
丫
蒋@@
庚
汪@@
巡
璐
裳
冕@@
懈
揣@@
盹
洼
鳗
禹
祈@@
哼@@
肇
缄@@
蒲@@
凳@@
夭@@
踊@@
了解@@
朱@@
负责@@
馏@@
婿
龚
苣
屁@@
丫@@
颌@@
嘟@@
颐@@
翔@@
喙
炙@@
帑
俐
噻
飙
学金
亢
珂
刍@@
涎
贿@@
蔚
鞠
桅
铀@@
澡@@
激光@@
屡
氦
媒@@
杠@@
狸
霭
翡@@
谟
壹
曹@@
腌
里兰@@
溯@@
讷
酯@@
绌
忽
怜@@
舟@@
荔@@
锌@@
澎@@
铰
偕
扒@@
舵@@
蝗@@
谕
坷
苟@@
券@@
暧@@
曝@@
淇
缔
｡
憎
捻
锚@@
潢
哺乳@@
睿@@
苛
蚓
民意@@
甙
姥
姨
捞@@
蠕
纫
冈@@
矗@@
泞
脆弱@@
仲@@
小伙@@
檀@@
瘫@@
呐@@
虱
岭@@
榷
纳米@@
[@@
一次@@
莞
3(2001)
峭@@
缸@@
炫
专门@@
不好@@
殖
揭
搓
滩@@
赘
霜@@
公交@@
斯科
憔@@
楔@@
酰@@
鳄
埠
惋@@
槿
绢
蘸
绰
悴
萎@@
劈@@
搐
矢@@
吨@@
嘧
殡@@
桔
灼
腊@@
酮@@
Ⅲ
芯@@
茁@@
峻
经常@@
裹@@
呜@@
怜
邢
楷@@
嘎@@
妨@@
渤@@
钳@@
娴@@
懈@@
忡
满意@@
瘸@@
瘾@@
蒜@@
迂@@
戎
挽
缀@@
鼬
龟@@
桅@@
坟
妓@@
瘢@@
纫@@
荟
溺
肘@@
蔬
蛛
刨
淑@@
甾
焚
蕙
僵
立在
翅@@
瑕
话说
呤
茬
WG.@@
篝@@
嘱@@
共和@@
匕@@
啼@@
上市@@
过滤@@
匿@@
尉@@
诬@@
恺
剽@@
廓
炜
诲
一无所@@
傀@@
慑@@
籽@@
靡@@
岑
铰@@
渥
玮
粱
哌
厢@@
呋
擅
冥
邑
俚@@
尼斯
网膜
辟@@
搂@@
桁@@
距@@
赃@@
遐@@
忡@@
欺
撇
嫉@@
掏
宇@@
次会议
癫
糜
嗒
谁@@
铣
阂
苟
吏
沛
秉
撬@@
株@@
瞻
拭@@
拮@@
沦
钧
兢@@
鲷
甲状@@
胞@@
札
岖
攒@@
新加@@
胳@@
蜓
!@@
疼@@
紊
彪
去年@@
缎@@
西洋
闩
苄
奋
朔
焰@@
鳌
熄
猕@@
皓
辐
矛@@
喹
伶@@
夷
曦
祟
锰@@
鄂
痣
恫@@
狄@@
秸@@
潦@@
瞩
圃
拂@@
谴@@
捲
樱
涯
穹@@
糠
厩
嗑
蜻@@
击事件
吁
最大@@
姗
骷@@
叽@@
瞳@@
丸@@
阈
怠@@
炬@@
㈥
惫@@
±
逅
痴
屿
晦@@
茸@@
愕
耙
啤
鄂@@
@
烩
萤
葡@@
柯@@
蟀
裙@@
咏
驯
⑴
硼@@
腆
邂@@
榻
幌@@
述了
霹@@
WT@@
暮
漪
簿@@
蕨@@
咧@@
幽
簧
馒@@
啰
絮@@
豚
歧
腥@@
婶@@
珈
苜@@
窄@@
装箱
化妆@@
咐
些方面
藜
温室@@
痢@@
钜
不开
菁
绯@@
蟋@@
俑
倦@@
喃@@
体制@@
嘱
坛@@
遢
诧@@
合伙@@
蓿
翱@@
创始@@
罔@@
今为止
壕
议事@@
劾
犊
貂
妨
有力@@
蔻
芸
钝@@
久性
嘟
债权@@
鹭
开幕@@
碌
翟
耘
逢@@
腭
辈@@
芹@@
孀
枷@@
竿@@
殴
巩
攫@@
獭
莴@@
铛
幼儿@@
猝@@
勘
髅
酥@@
铋
豚@@
辫@@
晓@@
枉
熨
骰@@
羚
拧@@
撬
叮
太平@@
鲤@@
谣@@
汲
呜
嫖@@
谚
蹩@@
鸿@@
琉@@
碘@@
礁@@
蝉
钾@@
辗@@
钎
惚
钮@@
儡
晾@@
襟
.org@@
炯
薰@@
霓@@
鸵@@
〇
祢
蟾@@
屹@@
笃
锢
珥
眺@@
镍@@
闵
狐@@
轩@@
告人
僻@@
憾
嗝
釉@@
拮
*@@
漠化
砌@@
跨国@@
隧
娃@@
害人
忒
邋@@
侬
淘
眨
芥
槌
噬@@
孜
唧@@
祷
羁
亭@@
平方@@
溃
组成@@
俭@@
腼@@
蚯@@
哝
憋
疲
翘@@
螯
鼾
歹
矣
炊@@
梵
璨
怕@@
洩
脯
蹈
挠@@
兴奋@@
戛@@
曝
绅
湃
孵
胱@@
会上
卤
鹃
倔@@
寅
葛@@
邃
舆@@
跛@@
姗@@
人道@@
爱好@@
跷
然不同
皈@@
璀@@
靳
剖
吁@@
洼@@
蔷@@
跆@@
昵@@
靖@@
桓
炖@@
青春@@
雳
俾@@
疱
蜚@@
对话@@
笺
耦
蜍
嫂
岂
兔@@
行道
义务@@
鳗@@
垛
拗
掐@@
秒@@
蓓
醛@@
金山
悍@@
蛤@@
祁
涝
扈
擎@@
蕃@@
嗤@@
沁
驼
匣@@
局限@@
解为
揪@@
褒@@
‧
疸
踱
坝@@
修正@@
踌@@
^
汶@@
晾
瓢@@
鹰@@
杀伤@@
嫂@@
窿
隧@@
彷@@
眸
躬@@
栗@@
蹋
匠@@
俩@@
煞
怡@@
蟹@@
侃
剿
沪@@
泵@@
嚣@@
琵@@
寮
仗@@
獾
相当@@
瞒@@
臆@@
剃
昕
榆@@
瘪
姜@@
蹬
磐@@
结核@@
骼@@
碌@@
斓
琢
蔼@@
蚜
靓@@
且@@
很久@@
搪@@
柚@@
水层
签署@@
烛
膀@@
芪
诵@@
磡
⑵
乒@@
俯
蝴@@
琶
盥@@
斩
冤
蛹
铈
催化@@
铨
爷@@
袤
俟
檐@@
嘌@@
胥
多元@@
涟@@
努力@@
诙@@
瞿
玺
饥
厮@@
辽
磕@@
鳕@@
歼@@
汰@@
瑰@@
N.@@
厅@@
幸存@@
湛@@
哒
忿@@
论会
庆祝@@
监会
臻
ü
呎
焙@@
年人
炫@@
驹
咨@@
漓@@
镰
楷
轶@@
毂
粕
岚
拯@@
钽
蛀@@
>@@
嘀@@
桦
力于
唆@@
拽@@
漱@@
耶@@
樟@@
呛
瘀@@
嘶
一看
肛
帘@@
镰@@
咭
‰
妊@@
枣@@
菲利@@
韶
蛙@@
闽@@
浣@@
挟@@
讪
鼹@@
槐
蒿
解决@@
华尔@@
嘲
蜱
槽@@
乾@@
土耳@@
娠@@
辫
麋@@
俏@@
仆@@
碾
铌
遏
天晚上
偎@@
匍@@
巩@@
踵@@
么@@
谧
佟
啄
堕
里程@@
感器
栾
浑
魇
塘@@
/T@@
鸠
汞@@
卅
遂@@
垩
粤
衫@@
侠@@
叨@@
澄
勉@@
痘@@
膦
唠
姊
迸@@
麝@@
摧
霄
麦当@@
掐
熠@@
涛@@
蹊@@
膳
嗣
赊@@
陋@@
祛@@
发挥@@
穹
唧
芙@@
萱
喵
窘
骡@@
坊@@
权力@@
煲
党人
匣
棺
燔
龛
煌@@
鳄@@
瑜@@
戟
海事@@
菸
柚
祷@@
茵@@
注目
犀
羡
洄@@
黝@@
瑟@@
锶
乓
惦@@
赘@@
潘@@
婧
箴@@
辄
甄
惶
旳
枉@@
骇
人力@@
殃
淳
髋
缇
奠
踝@@
攘
经验@@
锉
捂
芸@@
挟
荼
图书@@
阿拉@@
琅@@
裕@@
鹑
灶@@
鹫
佔
眯@@
坯@@
褥@@
丈@@
腋
麓
帽@@
畸
荫@@
漱
上个@@
聆
腑
膨
襟@@
轻重
阙
揽@@
盂
搂
笃@@
巾@@
跄
钯
靓
髁
威士@@
朵@@
湮@@
蓖@@
豹@@
廊@@
恬@@
遛@@
淤
锹
瘀
艇@@
小组@@
猬
嘻@@
鞣
窟@@
掳
匈
姻
藩
懦
吻@@
类似@@
浚
烨
胱
嚎@@
倘@@
琼@@
捂@@
虱@@
辊@@
烙
獒
甥
健身@@
醌
戳@@
疮@@
釜@@
椭
━
昙@@
目的@@
穗@@
蔺
彝@@
漾
咧
谘
赃
悯
搀@@
钵
茴@@
蝎
巍
辘
僭
葺
掷@@
慧@@
淮
渎@@
芜@@
晏
蝠
濮
玫
砰@@
瘙@@
纳税@@
锄@@
敖
茎@@
咫@@
枸@@
牒
哔
捎
纲@@
酌@@
一生@@
尊重@@
巅
粽@@
numb@@
褛
卟
牲
隋
着眼@@
蚁@@
承担@@
蚪
库尔@@
恕@@
祺
茨@@
崭@@
氩
络@@
喳
戈@@
匈@@
垦@@
贬
竺
铯
涉及@@
蝌@@
魅
扳
祈
禀@@
魄@@
桦@@
驮
沥
酞
哆@@
求职@@
釜
梧
饺
煜
恢
愚
楣
厦
啜@@
妾
施政@@
褥
蹑@@
矶
镳
民政@@
蜥
吋
咔@@
戚
淼
赵@@
臃@@
迦@@
喇
娜@@
桩@@
莘
呱@@
博物@@
疟
珑
莅@@
莽@@
赈@@
阉@@
蒽
巍@@
透明@@
μ
愣
达成@@
鹌@@
晗
翩
钠@@
缚
乞
奥林匹@@
侦
疡@@
鳟@@
啄@@
俨@@
颐
骋
烃@@
Joh@@
腓@@
隅
鹊
徙@@
诣
糯@@
阱
尼亚
垣
肼
薰
鹤@@
之为
茗
姻@@
寰
晟
冢
孰@@
褴@@
猿@@
琛
剁
箕
匐
啼
鲈
匝
惘
傍
嬗@@
澄@@
灸@@
隙@@
踹
嘿@@
胫
鄢
哉
讬
敛
葩
迩
樟
周期@@
峦
虻
婷@@
尔多@@
㈦
关节@@
澜@@
锗
镓
蕉
事会
刹
雏
桐@@
窜@@
①
杞
郁症
唷
铍
tp@@
郭@@
勿@@
痪@@
揣
撮@@
骤
Rev@@
侮
啪@@
贾@@
锣
前所未@@
嘞
岱
擂
窑@@
蔓@@
榔
漓
舷@@
邝
撩@@
扪@@
拣@@
摹
提高@@
晦
酣@@
印象@@
醺
持久@@
攘@@
秧@@
榕
刁@@
切除@@
羰
肱
铢
呱
嚼@@
泓
羿
铠@@
缰@@
楞
禾@@
茉
雍
躇
烊
咖
意味@@
筵@@
谩@@
哽@@
挛@@
本质@@
町
眯
确认@@
酶@@
般@@
阜@@
奚
凛@@
枭
疟@@
郦
痂
磕
罕@@
许可@@
桁
碲
咚
钍
﹒
钊
吮@@
咏@@
特派@@
盼@@
妒
椿
寥
鲤
魅@@
鳕
喳@@
悸
炊
谙
谬
嵇
鳖
珀@@
钦@@
#@@
噱@@
宛
嚎
秤@@
婕
邯@@
绮
|
寻求@@
砜
阚
鲈@@
剔
呦
闽
马来@@
噩@@
痫@@
垠
摈@@
玲@@
粹
糙
莪
惺@@
榆
窦@@
艮
蕉@@
踮
首脑@@
帜
梧@@
昧@@
琰
赝@@
覃
钇
绪@@
菲律@@
坳
庐
拎@@
纭
刁
昵
膈
诅
夭
夯@@
膺
觎
痔@@
萜
舜
滓
祠
恣@@
柑
汛@@
炬
嬷
肱@@
蝽
蟆
媳
氡
铉
崖@@
娼@@
生人
禀
冼
娼
昱
膀
嗣@@
掣
死亡@@
绉
友们
坨
字符@@
蚴
髂
膊@@
叼@@
鍊
匙@@
绎@@
觊@@
卯
咎
篪
醣
呕@@
舀
袒@@
可行@@
排雷@@
潇
多米@@
谄@@
瞅@@
镭
天花@@
楂
贼@@
浙
蜢
垩@@
娩@@
洙
跷@@
吮
娣
蚌
锄
臧
ww@@
嫦@@
扼
眷
堇
胍
寨@@
镐
祟@@
秽@@
蚤@@
忐@@
觑
向于
堕@@
璃
蜈@@
踵
廓@@
蟒
别无@@
尔文
敝
煦
诟@@
雍@@
篓
卞
犁@@
柿@@
磅@@
胁@@
季节@@
磋
槲@@
瘟
瞅
蚜@@
谑
叽
楞@@
不论@@
乒乓@@
壑
遨@@
鲱@@
淬
刽@@
掀
砼
`@@
摄像@@
邬
鹬
介绍@@
侮@@
潺
桉
蚣
銲
馅@@
侃@@
椅@@
蜀
螳@@
瑾
岬
遐
冉@@
墟@@
莉@@
追溯@@
骶
澹
皙
徨
洗手@@
芷
沐
鲑
醺@@
坍
咻
囔
⑶
牟
癖@@
矫
蝉@@
穆斯@@
踞
罄
聿
一段@@
叛
吭
忽略@@
拎
镧
桡@@
缚@@
E/C@@
所未@@
新华@@
氦@@
绽
跤@@
埚
妃@@
漉
瑛
吲
擒
需求@@
哮@@
貂@@
铬@@
袍@@
哺
噶
栎
槓
绦@@
胭@@
通知@@
忻
涝@@
魏@@
渺
氪
牛仔@@
诀
顽
伶
搽
蒴
庐@@
蛆
懿
廷@@
起重@@
兢
蜇
崽@@
泣@@
逸@@
鬃@@
至关@@
沥@@
蒯
蜀@@
傅@@
桉@@
涓
珊@@
讣@@
鳏@@
媚@@
宦
屌
猩@@
蛭
贻@@
辕
